{
  "version": "1.0",
  "truncation": null,
  "padding": null,
  "added_tokens": [
    {
      "id": 0,
      "content": "<unk>",
      "single_word": false,
      "lstrip": false,
      "rstrip": false,
      "normalized": false,
      "special": true
    },
    {
      "id": 1,
      "content": "<s>",
      "single_word": false,
      "lstrip": false,
      "rstrip": false,
      "normalized": false,
      "special": true
    },
    {
      "id": 2,
      "content": "</s>",
      "single_word": false,
      "lstrip": false,
      "rstrip": false,
      "normalized": false,
      "special": true
    },
    {
      "id": 3,
      "content": "<pad>",
      "single_word": false,
      "lstrip": false,
      "rstrip": false,
      "normalized": false,
      "special": true
    },
    {
      "id": 4,
      "content": "<mask>",
      "single_word": false,
      "lstrip": false,
      "rstrip": false,
      "normalized": false,
      "special": true
    },
    {
      "id": 5,
      "content": "<special_0>",
      "single_word": false,
      "lstrip": false,
      "rstrip": false,
      "normalized": false,
      "special": true
    },
    {
      "id": 6,
      "content": "<special_1>",
      "single_word": false,
      "lstrip": false,
      "rstrip": false,
      "normalized": false,
      "special": true
    },
    {
      "id": 7,
      "content": "<special_2>",
      "single_word": false,
      "lstrip": false,
      "rstrip": false,
      "normalized": false,
      "special": true
    },
    {
      "id": 8,
      "content": "<special_3>",
      "single_word": false,
      "lstrip": false,
      "rstrip": false,
      "normalized": false,
      "special": true
    },
    {
      "id": 9,
      "content": "<special_4>",
      "single_word": false,
      "lstrip": false,
      "rstrip": false,
      "normalized": false,
      "special": true
    },
    {
      "id": 10,
      "content": "<special_5>",
      "single_word": false,
      "lstrip": false,
      "rstrip": false,
      "normalized": false,
      "special": true
    },
    {
      "id": 11,
      "content": "<special_6>",
      "single_word": false,
      "lstrip": false,
      "rstrip": false,
      "normalized": false,
      "special": true
    },
    {
      "id": 12,
      "content": "<special_7>",
      "single_word": false,
      "lstrip": false,
      "rstrip": false,
      "normalized": false,
      "special": true
    },
    {
      "id": 13,
      "content": "<special_8>",
      "single_word": false,
      "lstrip": false,
      "rstrip": false,
      "normalized": false,
      "special": true
    },
    {
      "id": 14,
      "content": "<special_9>",
      "single_word": false,
      "lstrip": false,
      "rstrip": false,
      "normalized": false,
      "special": true
    },
    {
      "id": 15,
      "content": "<special_10>",
      "single_word": false,
      "lstrip": false,
      "rstrip": false,
      "normalized": false,
      "special": true
    }
  ],
  "normalizer": {
    "type": "Sequence",
    "normalizers": [
      {
        "type": "Prepend",
        "prepend": " "
      },
      {
        "type": "NFC"
      },
      {
        "type": "Replace",
        "pattern": {
          "Regex": "\n"
        },
        "content": "\n "
      },
      {
        "type": "Replace",
        "pattern": {
          "Regex": " *\n"
        },
        "content": "\n"
      }
    ]
  },
  "pre_tokenizer": {
    "type": "Sequence",
    "pretokenizers": [
      {
        "type": "Split",
        "pattern": {
          "Regex": "[^\\r\\n\\p{L}\\p{N}]?[\\p{Lu}\\p{Lt}\\p{Lm}\\p{Lo}\\p{M}]*[\\p{Ll}\\p{Lm}\\p{Lo}\\p{M}]+|[^\\r\\n\\p{L}\\p{N}]?[\\p{Lu}\\p{Lt}\\p{Lm}\\p{Lo}\\p{M}]+[\\p{Ll}\\p{Lm}\\p{Lo}\\p{M}]*| ?\\p{N}| ?[^\\s\\p{L}\\p{N}]+[\\r\\n/]*|\\s*[\\r\\n]+|\\s+(?!\\S)|\\s+"
        },
        "behavior": "Isolated",
        "invert": false
      },
      {
        "type": "ByteLevel",
        "add_prefix_space": false,
        "trim_offsets": true,
        "use_regex": false
      }
    ]
  },
  "post_processor": {
    "type": "TemplateProcessing",
    "single": [
      {
        "SpecialToken": {
          "id": "<s>",
          "type_id": 0
        }
      },
      {
        "Sequence": {
          "id": "A",
          "type_id": 0
        }
      }
    ],
    "pair": [
      {
        "SpecialToken": {
          "id": "<s>",
          "type_id": 0
        }
      },
      {
        "Sequence": {
          "id": "A",
          "type_id": 0
        }
      },
      {
        "SpecialToken": {
          "id": "<s>",
          "type_id": 0
        }
      },
      {
        "Sequence": {
          "id": "B",
          "type_id": 0
        }
      }
    ],
    "special_tokens": {
      "<s>": {
        "id": "<s>",
        "ids": [
          1
        ],
        "tokens": [
          "<s>"
        ]
      }
    }
  },
  "decoder": {
    "type": "Sequence",
    "decoders": [
      {
        "type": "ByteLevel",
        "add_prefix_space": true,
        "trim_offsets": true,
        "use_regex": true
      },
      {
        "type": "Strip",
        "content": " ",
        "start": 1,
        "stop": 0
      },
      {
        "type": "Replace",
        "pattern": {
          "String": "\n "
        },
        "content": "\n"
      }
    ]
  },
  "model": {
    "type": "BPE",
    "dropout": null,
    "unk_token": "<unk>",
    "continuing_subword_prefix": null,
    "end_of_word_suffix": null,
    "fuse_unk": false,
    "byte_fallback": false,
    "ignore_merges": true,
    "vocab": {
      "<unk>": 0,
      "<s>": 1,
      "</s>": 2,
      "<pad>": 3,
      "<mask>": 4,
      "<special_0>": 5,
      "<special_1>": 6,
      "<special_2>": 7,
      "<special_3>": 8,
      "<special_4>": 9,
      "<special_5>": 10,
      "<special_6>": 11,
      "<special_7>": 12,
      "<special_8>": 13,
      "<special_9>": 14,
      "<special_10>": 15,
      "!": 16,
      "\"": 17,
      "#": 18,
      "$": 19,
      "%": 20,
      "&": 21,
      "'": 22,
      "(": 23,
      ")": 24,
      "*": 25,
      "+": 26,
      ",": 27,
      "-": 28,
      ".": 29,
      "/": 30,
      "0": 31,
      "1": 32,
      "2": 33,
      "3": 34,
      "4": 35,
      "5": 36,
      "6": 37,
      "7": 38,
      "8": 39,
      "9": 40,
      ":": 41,
      ";": 42,
      "<": 43,
      "=": 44,
      ">": 45,
      "?": 46,
      "@": 47,
      "A": 48,
      "B": 49,
      "C": 50,
      "D": 51,
      "E": 52,
      "F": 53,
      "G": 54,
      "H": 55,
      "I": 56,
      "J": 57,
      "K": 58,
      "L": 59,
      "M": 60,
      "N": 61,
      "O": 62,
      "P": 63,
      "Q": 64,
      "R": 65,
      "S": 66,
      "T": 67,
      "U": 68,
      "V": 69,
      "W": 70,
      "X": 71,
      "Y": 72,
      "Z": 73,
      "[": 74,
      "\\": 75,
      "]": 76,
      "^": 77,
      "_": 78,
      "`": 79,
      "a": 80,
      "b": 81,
      "c": 82,
      "d": 83,
      "e": 84,
      "f": 85,
      "g": 86,
      "h": 87,
      "i": 88,
      "j": 89,
      "k": 90,
      "l": 91,
      "m": 92,
      "n": 93,
      "o": 94,
      "p": 95,
      "q": 96,
      "r": 97,
      "s": 98,
      "t": 99,
      "u": 100,
      "v": 101,
      "w": 102,
      "x": 103,
      "y": 104,
      "z": 105,
      "{": 106,
      "|": 107,
      "}": 108,
      "~": 109,
      "¡": 110,
      "¢": 111,
      "£": 112,
      "¤": 113,
      "¥": 114,
      "¦": 115,
      "§": 116,
      "¨": 117,
      "©": 118,
      "ª": 119,
      "«": 120,
      "¬": 121,
      "®": 122,
      "¯": 123,
      "°": 124,
      "±": 125,
      "²": 126,
      "³": 127,
      "´": 128,
      "µ": 129,
      "¶": 130,
      "·": 131,
      "¸": 132,
      "¹": 133,
      "º": 134,
      "»": 135,
      "¼": 136,
      "½": 137,
      "¾": 138,
      "¿": 139,
      "À": 140,
      "Á": 141,
      "Â": 142,
      "Ã": 143,
      "Ä": 144,
      "Å": 145,
      "Æ": 146,
      "Ç": 147,
      "È": 148,
      "É": 149,
      "Ê": 150,
      "Ë": 151,
      "Ì": 152,
      "Í": 153,
      "Î": 154,
      "Ï": 155,
      "Ð": 156,
      "Ñ": 157,
      "Ò": 158,
      "Ó": 159,
      "Ô": 160,
      "Õ": 161,
      "Ö": 162,
      "×": 163,
      "Ø": 164,
      "Ù": 165,
      "Ú": 166,
      "Û": 167,
      "Ü": 168,
      "Ý": 169,
      "Þ": 170,
      "ß": 171,
      "à": 172,
      "á": 173,
      "â": 174,
      "ã": 175,
      "ä": 176,
      "å": 177,
      "æ": 178,
      "ç": 179,
      "è": 180,
      "é": 181,
      "ê": 182,
      "ë": 183,
      "ì": 184,
      "í": 185,
      "î": 186,
      "ï": 187,
      "ð": 188,
      "ñ": 189,
      "ò": 190,
      "ó": 191,
      "ô": 192,
      "õ": 193,
      "ö": 194,
      "÷": 195,
      "ø": 196,
      "ù": 197,
      "ú": 198,
      "û": 199,
      "ü": 200,
      "ý": 201,
      "þ": 202,
      "ÿ": 203,
      "Ā": 204,
      "ā": 205,
      "Ă": 206,
      "ă": 207,
      "Ą": 208,
      "ą": 209,
      "Ć": 210,
      "ć": 211,
      "Ĉ": 212,
      "ĉ": 213,
      "Ċ": 214,
      "ċ": 215,
      "Č": 216,
      "č": 217,
      "Ď": 218,
      "ď": 219,
      "Đ": 220,
      "đ": 221,
      "Ē": 222,
      "ē": 223,
      "Ĕ": 224,
      "ĕ": 225,
      "Ė": 226,
      "ė": 227,
      "Ę": 228,
      "ę": 229,
      "Ě": 230,
      "ě": 231,
      "Ĝ": 232,
      "ĝ": 233,
      "Ğ": 234,
      "ğ": 235,
      "Ġ": 236,
      "ġ": 237,
      "Ģ": 238,
      "ģ": 239,
      "Ĥ": 240,
      "ĥ": 241,
      "Ħ": 242,
      "ħ": 243,
      "Ĩ": 244,
      "ĩ": 245,
      "Ī": 246,
      "ī": 247,
      "Ĭ": 248,
      "ĭ": 249,
      "Į": 250,
      "į": 251,
      "İ": 252,
      "ı": 253,
      "Ĳ": 254,
      "ĳ": 255,
      "Ĵ": 256,
      "ĵ": 257,
      "Ķ": 258,
      "ķ": 259,
      "ĸ": 260,
      "Ĺ": 261,
      "ĺ": 262,
      "Ļ": 263,
      "ļ": 264,
      "Ľ": 265,
      "ľ": 266,
      "Ŀ": 267,
      "ŀ": 268,
      "Ł": 269,
      "ł": 270,
      "Ń": 271,
      "Ġt": 272,
      "Ġa": 273,
      "in": 274,
      "he": 275,
      "re": 276,
      "on": 277,
      "er": 278,
      "Ġthe": 279,
      "Ġs": 280,
      "at": 281,
      "Ġw": 282,
      "or": 283,
      "nd": 284,
      "Ġc": 285,
      "ou": 286,
      "it": 287,
      "es": 288,
      "is": 289,
      "en": 290,
      "Ġf": 291,
      "ing": 292,
      "Ġb": 293,
      "Ġo": 294,
      "Ġp": 295,
      "an": 296,
      "ed": 297,
      "al": 298,
      "Ġm": 299,
      "ar": 300,
      "Ġto": 301,
      "Ġand": 302,
      "Ġin": 303,
      "Ġof": 304,
      "Ġd": 305,
      "ic": 306,
      "le": 307,
      "om": 308,
      "as": 309,
      "ion": 310,
      "Ġh": 311,
      "Ġth": 312,
      "ĠT": 313,
      "il": 314,
      "ĠI": 315,
      "ent": 316,
      "Ġl": 317,
      "ĠS": 318,
      "st": 319,
      "ro": 320,
      "ve": 321,
      "Ġe": 322,
      "Ġre": 323,
      "âĢ": 324,
      "Ġn": 325,
      ".Ċ": 326,
      "ĠA": 327,
      "ct": 328,
      "Ġy": 329,
      "Ġg": 330,
      "et": 331,
      "ĠC": 332,
      "ly": 333,
      "ot": 334,
      "Ġis": 335,
      "id": 336,
      "Ġyou": 337,
      "Ġbe": 338,
      "ay": 339,
      "Ġfor": 340,
      "ow": 341,
      "Ġon": 342,
      "ĠM": 343,
      "us": 344,
      "ol": 345,
      "ad": 346,
      "el": 347,
      "ac": 348,
      "ig": 349,
      "im": 350,
      "ĠP": 351,
      "am": 352,
      "ver": 353,
      "ut": 354,
      "ation": 355,
      "ĠB": 356,
      "ith": 357,
      "Ġthat": 358,
      "Ġst": 359,
      "ur": 360,
      "Ġ-": 361,
      "ĠW": 362,
      "ir": 363,
      "Ġwith": 364,
      "ce": 365,
      "ch": 366,
      "Ġit": 367,
      "ĠThe": 368,
      "ĠD": 369,
      "Ġhe": 370,
      "ĠF": 371,
      "ĠH": 372,
      "ul": 373,
      "ter": 374,
      "âĢĻ": 375,
      "Ġan": 376,
      "se": 377,
      "ĠR": 378,
      "Ġal": 379,
      "un": 380,
      "ra": 381,
      "ill": 382,
      "Ġas": 383,
      "Ġwh": 384,
      "Ġ1": 385,
      "if": 386,
      "Ġ2": 387,
      "ers": 388,
      "Ġpro": 389,
      "out": 390,
      "ke": 391,
      "ge": 392,
      "oo": 393,
      "ĠL": 394,
      "Ġare": 395,
      "Ġwe": 396,
      "Ġha": 397,
      "Ġcon": 398,
      "pp": 399,
      "her": 400,
      "ate": 401,
      "ment": 402,
      "ess": 403,
      "Ġor": 404,
      "ri": 405,
      "ore": 406,
      "Ġ(": 407,
      "Ġcom": 408,
      "ab": 409,
      "ĠE": 410,
      "est": 411,
      "ĠN": 412,
      "ĠG": 413,
      "our": 414,
      "Ġat": 415,
      "ld": 416,
      "igh": 417,
      "rom": 418,
      "ĠO": 419,
      "Ġse": 420,
      "ist": 421,
      "ew": 422,
      "em": 423,
      "ort": 424,
      "op": 425,
      "Ġex": 426,
      "qu": 427,
      "ure": 428,
      "Ġv": 429,
      "ĠâĢ": 430,
      "ant": 431,
      "um": 432,
      "Ġwas": 433,
      "ity": 434,
      "Ġr": 435,
      "Ġde": 436,
      "pe": 437,
      "ive": 438,
      "art": 439,
      "ust": 440,
      "Ġthis": 441,
      "ain": 442,
      "oc": 443,
      "Ġby": 444,
      "Ġyour": 445,
      "os": 446,
      "Ġfrom": 447,
      "Ġhave": 448,
      "Ġsh": 449,
      "and": 450,
      "ies": 451,
      "Ġnot": 452,
      "th": 453,
      "up": 454,
      "ight": 455,
      "nt": 456,
      "Ġch": 457,
      "Ġus": 458,
      "Ġcan": 459,
      "res": 460,
      "ĠJ": 461,
      "all": 462,
      "ard": 463,
      "od": 464,
      "âĢĻs": 465,
      "Ġsu": 466,
      "ost": 467,
      "ome": 468,
      "ud": 469,
      "Ġle": 470,
      "..": 471,
      "iv": 472,
      "te": 473,
      "Ġwill": 474,
      "ould": 475,
      "ine": 476,
      "Ġab": 477,
      "ack": 478,
      "ear": 479,
      "ally": 480,
      "ag": 481,
      "ide": 482,
      "ell": 483,
      "Ġpl": 484,
      "'s": 485,
      "gh": 486,
      "red": 487,
      "Ġj": 488,
      "Ġall": 489,
      "ĠU": 490,
      "ak": 491,
      "ĠIn": 492,
      "Ġwor": 493,
      "ĠTh": 494,
      "ast": 495,
      "Ġk": 496,
      "Ġdo": 497,
      "rou": 498,
      "ice": 499,
      "age": 500,
      "ction": 501,
      "pt": 502,
      "fe": 503,
      "Ġne": 504,
      "ial": 505,
      "Ġme": 506,
      "ip": 507,
      "og": 508,
      "Ġhas": 509,
      "Ġwhe": 510,
      "Ġbut": 511,
      "are": 512,
      "ook": 513,
      "Ġcomp": 514,
      "per": 515,
      "one": 516,
      "ind": 517,
      "Ġad": 518,
      "ther": 519,
      "able": 520,
      "ich": 521,
      "ry": 522,
      "ĠY": 523,
      "Ġout": 524,
      "ĠK": 525,
      "Ġup": 526,
      "ake": 527,
      "ated": 528,
      "ite": 529,
      "Ġso": 530,
      "iz": 531,
      "Ġmore": 532,
      "Ġmy": 533,
      "ood": 534,
      "very": 535,
      "Ġen": 536,
      "cc": 537,
      "ong": 538,
      "ĠSt": 539,
      "orm": 540,
      "pl": 541,
      "ime": 542,
      "ans": 543,
      "ĠV": 544,
      "ber": 545,
      "Ġthey": 546,
      "ous": 547,
      "Ġcl": 548,
      "ĠâĢľ": 549,
      "ie": 550,
      "âĢĿ": 551,
      "Ġone": 552,
      "ail": 553,
      "Ġtheir": 554,
      "ike": 555,
      "ia": 556,
      "Ġ3": 557,
      "ace": 558,
      "ame": 559,
      "Ġim": 560,
      "du": 561,
      "ap": 562,
      "Ġcont": 563,
      "ance": 564,
      "Ġun": 565,
      "act": 566,
      "Ġabout": 567,
      "ions": 568,
      "ign": 569,
      "ks": 570,
      "Ġman": 571,
      "Ġtr": 572,
      "ree": 573,
      "so": 574,
      "ue": 575,
      "ub": 576,
      "cl": 577,
      "ire": 578,
      "ĠIt": 579,
      "ary": 580,
      "Ġ\"": 581,
      "ĠRe": 582,
      "ase": 583,
      "Ġhis": 584,
      "ach": 585,
      "ib": 586,
      "ĠCh": 587,
      "ult": 588,
      "Ġapp": 589,
      "Ġour": 590,
      "Ġwho": 591,
      "ff": 592,
      "Ġte": 593,
      "Ġwhich": 594,
      "Ġsa": 595,
      "und": 596,
      "Ġres": 597,
      "Ġgo": 598,
      "ass": 599,
      "ll": 600,
      "ations": 601,
      "reat": 602,
      "Ġqu": 603,
      "ile": 604,
      "ove": 605,
      "Ġint": 606,
      "form": 607,
      "ays": 608,
      "ick": 609,
      "ical": 610,
      "own": 611,
      "ord": 612,
      "Ġper": 613,
      "ven": 614,
      "Ġother": 615,
      "Ġany": 616,
      "Ġoff": 617,
      "Ġdis": 618,
      "erv": 619,
      "ress": 620,
      "ne": 621,
      "Ġtime": 622,
      "Ġlike": 623,
      "ond": 624,
      "ount": 625,
      "ĠWe": 626,
      "Ġget": 627,
      "Ġsp": 628,
      "ence": 629,
      "ep": 630,
      "ings": 631,
      "Ġyear": 632,
      "ark": 633,
      "Ġsome": 634,
      "Ġag": 635,
      "Ġalso": 636,
      "av": 637,
      "vel": 638,
      "Ġnew": 639,
      "ru": 640,
      "ition": 641,
      "ĠThis": 642,
      "Ġpart": 643,
      "Ġkn": 644,
      "Ġwork": 645,
      "Ġthem": 646,
      "ob": 647,
      "Ġar": 648,
      "Ġthere": 649,
      "ĠHe": 650,
      "ose": 651,
      "Ġpe": 652,
      "port": 653,
      "Ġbeen": 654,
      "ents": 655,
      "ors": 656,
      "Ġsc": 657,
      "ens": 658,
      "Ġwhen": 659,
      "ough": 660,
      "Ġover": 661,
      "Ġif": 662,
      "Ġhad": 663,
      "Ġwere": 664,
      "Ġro": 665,
      "ish": 666,
      "Ġrec": 667,
      "Ġ4": 668,
      "Ġher": 669,
      "Ġwould": 670,
      "Ġwhat": 671,
      "low": 672,
      "Ġpre": 673,
      "int": 674,
      "ound": 675,
      "ck": 676,
      "Ġjust": 677,
      "ory": 678,
      "ink": 679,
      "ov": 680,
      "ild": 681,
      "Ġam": 682,
      "Ġfe": 683,
      "Ġthan": 684,
      "ang": 685,
      "ren": 686,
      "Ġ5": 687,
      "oy": 688,
      "mer": 689,
      "use": 690,
      "Ġspe": 691,
      "wn": 692,
      "Ġacc": 693,
      "ater": 694,
      "Ġits": 695,
      "irst": 696,
      "Ġneed": 697,
      "Ġbec": 698,
      ":Ċ": 699,
      "ĠWh": 700,
      "ade": 701,
      "lic": 702,
      "Ġdes": 703,
      "ople": 704,
      "ments": 705,
      "old": 706,
      "iew": 707,
      "vers": 708,
      "Ġinto": 709,
      "âĢĻt": 710,
      "Ġhow": 711,
      "itt": 712,
      "fter": 713,
      "'t": 714,
      "ft": 715,
      "ons": 716,
      "ian": 717,
      "ual": 718,
      "Ġbl": 719,
      "ning": 720,
      "ric": 721,
      "Ġmay": 722,
      "end": 723,
      "ĠâĢĵ": 724,
      "anc": 725,
      "clud": 726,
      "rough": 727,
      "Ġtw": 728,
      "Ġno": 729,
      "Ġpeople": 730,
      "ĠYou": 731,
      "ates": 732,
      "tern": 733,
      "hed": 734,
      "ious": 735,
      "ating": 736,
      "ool": 737,
      "ont": 738,
      "Ġknow": 739,
      "ful": 740,
      "ph": 741,
      "com": 742,
      "Ġfirst": 743,
      "Ġsaid": 744,
      "Ġshe": 745,
      "Ġonly": 746,
      "ause": 747,
      "day": 748,
      "Ġcomm": 749,
      "ĠSe": 750,
      "les": 751,
      ")Ċ": 752,
      "rent": 753,
      "Ġadd": 754,
      "ple": 755,
      "ĠAs": 756,
      "Ġ-Ċ": 757,
      "Ġprov": 758,
      "Ġmake": 759,
      "Ġlook": 760,
      "ĠCom": 761,
      "Ġund": 762,
      "Ġbet": 763,
      "lp": 764,
      "we": 765,
      "ect": 766,
      "Ġuse": 767,
      "ram": 768,
      "Ġind": 769,
      "Ġcol": 770,
      "Ġmost": 771,
      "ise": 772,
      "ĠPro": 773,
      "Ġback": 774,
      "Ġinclud": 775,
      "hing": 776,
      "Ġem": 777,
      "Ġhelp": 778,
      "Ġprodu": 779,
      "ĠAn": 780,
      "Ġevery": 781,
      "Ġwant": 782,
      "round": 783,
      "ĠAnd": 784,
      "ock": 785,
      "iss": 786,
      "xt": 787,
      "Ġbu": 788,
      "Ġph": 789,
      "?Ċ": 790,
      "Ġact": 791,
      "ĠIf": 792,
      "hen": 793,
      "Ġsee": 794,
      "lect": 795,
      "fect": 796,
      "Ġthrough": 797,
      "Ġunder": 798,
      "Ġcons": 799,
      "aw": 800,
      "Ġ6": 801,
      "ific": 802,
      "Ġ&": 803,
      "Ġwell": 804,
      "Ġthese": 805,
      "ĠDe": 806,
      "ities": 807,
      "Ġpr": 808,
      "Ġtwo": 809,
      "ife": 810,
      "urn": 811,
      "Ġserv": 812,
      "ject": 813,
      "Ġsupp": 814,
      "ert": 815,
      "enc": 816,
      "Ġsy": 817,
      "Ġvery": 818,
      "ting": 819,
      "ĠUn": 820,
      "Ġco": 821,
      "row": 822,
      "Ġafter": 823,
      "...": 824,
      "Ġdif": 825,
      "Ġ$": 826,
      "erm": 827,
      "Ġfl": 828,
      "ures": 829,
      "!Ċ": 830,
      "ĠSh": 831,
      "Ġgood": 832,
      "fore": 833,
      "Ġrel": 834,
      "cess": 835,
      "rit": 836,
      "als": 837,
      "ily": 838,
      "bs": 839,
      "uch": 840,
      "Ġreg": 841,
      "Ġcould": 842,
      "ath": 843,
      "Ġpo": 844,
      "elf": 845,
      "ange": 846,
      "ĠFor": 847,
      "iness": 848,
      "Ġinv": 849,
      "cre": 850,
      "ts": 851,
      "Ġplay": 852,
      "oss": 853,
      "erson": 854,
      "Ġway": 855,
      "Ġyears": 856,
      "Ġke": 857,
      "Ġmany": 858,
      "formation": 859,
      "ility": 860,
      "Ġnow": 861,
      "ty": 862,
      "Ġthen": 863,
      "Ġsm": 864,
      "Ġshould": 865,
      "any": 866,
      "ible": 867,
      "Ġeven": 868,
      "ased": 869,
      "Ġrem": 870,
      "Ġwhere": 871,
      "oth": 872,
      "pect": 873,
      "aking": 874,
      "ular": 875,
      "olog": 876,
      "ational": 877,
      "ied": 878,
      "ices": 879,
      "Ġass": 880,
      "Ġtra": 881,
      "ys": 882,
      "ble": 883,
      "Ġdown": 884,
      "ĠAl": 885,
      "Ġgu": 886,
      "Ġ7": 887,
      "get": 888,
      "Ġstud": 889,
      "stem": 890,
      "ics": 891,
      "Ġread": 892,
      "its": 893,
      "line": 894,
      "hes": 895,
      "Ġgreat": 896,
      "ower": 897,
      "ork": 898,
      "ract": 899,
      "Ġhim": 900,
      "Ġright": 901,
      "ĠNew": 902,
      "Ġdid": 903,
      "ull": 904,
      "air": 905,
      "Ġexper": 906,
      "Ġev": 907,
      "Ġdon": 908,
      "Ġbecause": 909,
      "usiness": 910,
      "ative": 911,
      "ener": 912,
      "ict": 913,
      "Ġent": 914,
      "ward": 915,
      "Ġown": 916,
      "Ġ8": 917,
      "uring": 918,
      "rib": 919,
      "Ġsuch": 920,
      "Ġset": 921,
      "ited": 922,
      "ident": 923,
      "ience": 924,
      "Ġinst": 925,
      "Ġhigh": 926,
      "Ġmuch": 927,
      "Ġstart": 928,
      "Ġatt": 929,
      "),": 930,
      "Ġfin": 931,
      "velop": 932,
      "Ġ0": 933,
      "io": 934,
      "arch": 935,
      "ix": 936,
      "Ġac": 937,
      "other": 938,
      "...Ċ": 939,
      "Ġhere": 940,
      "Ġtoo": 941,
      "Ġcar": 942,
      "Ġthink": 943,
      "view": 944,
      "alth": 945,
      "__": 946,
      "Ġspec": 947,
      "Ġimp": 948,
      "ĠAd": 949,
      "Ġfind": 950,
      "ĠBe": 951,
      "Ġbest": 952,
      "ĠCl": 953,
      "Ġday": 954,
      "Ġlong": 955,
      "ank": 956,
      "Ġmin": 957,
      "ĠBut": 958,
      "hip": 959,
      "ale": 960,
      "Ġsec": 961,
      "omet": 962,
      "Ġins": 963,
      "ĠEn": 964,
      "ax": 965,
      "Ġmon": 966,
      "ient": 967,
      "Ġagain": 968,
      "ug": 969,
      "Ġdoes": 970,
      "Ġinformation": 971,
      "Ġdiffe": 972,
      "Ġche": 973,
      "Ġpres": 974,
      "gan": 975,
      "Ġloc": 976,
      "amp": 977,
      "Ġ9": 978,
      "ollow": 979,
      "Ġbr": 980,
      "Ġtake": 981,
      "Ġmade": 982,
      "Ġshow": 983,
      "Ġrequ": 984,
      "Ġbeing": 985,
      "ĠAr": 986,
      "arket": 987,
      "Ġused": 988,
      "Ġwee": 989,
      "ĠHow": 990,
      "ĠOn": 991,
      "Ġdec": 992,
      "Ġmod": 993,
      "Ġend": 994,
      "ize": 995,
      "az": 996,
      "Ġ[": 997,
      "ash": 998,
      "Ġperson": 999,
      "Ġbefore": 1000,
      "ave": 1001,
      "Ġtrans": 1002,
      "ues": 1003,
      "ĠPl": 1004,
      "atch": 1005,
      "alk": 1006,
      "Ġcall": 1007,
      "Ġthose": 1008,
      "Ġworld": 1009,
      "Ġsur": 1010,
      "oad": 1011,
      "ually": 1012,
      "ces": 1013,
      ").": 1014,
      "ason": 1015,
      "Ġsub": 1016,
      "Ġsim": 1017,
      "Ġpol": 1018,
      "pr": 1019,
      "Ġdesign": 1020,
      "chool": 1021,
      "rest": 1022,
      ".com": 1023,
      "Ġsystem": 1024,
      "Ġinte": 1025,
      "ner": 1026,
      "ouse": 1027,
      "ving": 1028,
      "ĠLe": 1029,
      "way": 1030,
      "Ġav": 1031,
      "Ġdet": 1032,
      "gram": 1033,
      "ĠSo": 1034,
      "Ġhand": 1035,
      "ins": 1036,
      "Ġhome": 1037,
      "âĢ¦": 1038,
      "ather": 1039,
      ".âĢĿ": 1040,
      "ĠThere": 1041,
      "Ġinter": 1042,
      "der": 1043,
      "--": 1044,
      "ah": 1045,
      "ines": 1046,
      "ffect": 1047,
      "chn": 1048,
      "ĠQ": 1049,
      "Ġra": 1050,
      "Ġfam": 1051,
      "ss": 1052,
      "arm": 1053,
      "ata": 1054,
      "ages": 1055,
      "Ġlife": 1056,
      "Ġform": 1057,
      "pen": 1058,
      "oun": 1059,
      "ĠEx": 1060,
      "Ġart": 1061,
      "land": 1062,
      "Ġbusiness": 1063,
      "ced": 1064,
      "Ġproduct": 1065,
      "ĠBl": 1066,
      "ier": 1067,
      "Ġmed": 1068,
      "ption": 1069,
      "ince": 1070,
      "ctions": 1071,
      "Ġnum": 1072,
      "Ġlast": 1073,
      "ives": 1074,
      "Ġreally": 1075,
      "ality": 1076,
      "Ġmem": 1077,
      "Ġpost": 1078,
      "Ġdevelop": 1079,
      "Ġcre": 1080,
      "iet": 1081,
      "Ġgr": 1082,
      "Ġi": 1083,
      "read": 1084,
      "ublic": 1085,
      "akes": 1086,
      "arn": 1087,
      "led": 1088,
      "Ġfollow": 1089,
      "ĠTo": 1090,
      "Ġ|": 1091,
      "ĠTe": 1092,
      "Ġdisc": 1093,
      "Ġeach": 1094,
      "ars": 1095,
      "riend": 1096,
      "Ġprovid": 1097,
      "irect": 1098,
      "els": 1099,
      "Ġwhile": 1100,
      "Ġmet": 1101,
      "ps": 1102,
      "imes": 1103,
      "ution": 1104,
      "ene": 1105,
      "ER": 1106,
      "Ġfree": 1107,
      "ness": 1108,
      "Ġret": 1109,
      "ustom": 1110,
      "au": 1111,
      "Ġser": 1112,
      "ik": 1113,
      "Ġthough": 1114,
      "Ġcur": 1115,
      "Ġaut": 1116,
      "Ġsign": 1117,
      "Ġeas": 1118,
      "ute": 1119,
      "lease": 1120,
      "Ġbo": 1121,
      "Ġbook": 1122,
      "ween": 1123,
      "Ġed": 1124,
      "ature": 1125,
      "ĠWhat": 1126,
      "ivers": 1127,
      "Ġvis": 1128,
      "Ġcomple": 1129,
      "Ġgoing": 1130,
      "Ġdifferent": 1131,
      "ĠThey": 1132,
      "Ġchar": 1133,
      "Ġaround": 1134,
      "Ġsk": 1135,
      "Ġcount": 1136,
      "Ġcour": 1137,
      "Ġsomet": 1138,
      "Ġlove": 1139,
      "Ġcr": 1140,
      "Ġstill": 1141,
      "Ġsame": 1142,
      "Ġsupport": 1143,
      "Ġlead": 1144,
      "Ġsay": 1145,
      "ved": 1146,
      "ittle": 1147,
      "Ġcle": 1148,
      "ton": 1149,
      "Ġfun": 1150,
      "Ġadv": 1151,
      "orn": 1152,
      "Ġfil": 1153,
      "Ġstr": 1154,
      "uc": 1155,
      "Ġbetween": 1156,
      "ets": 1157,
      "ters": 1158,
      "Ġchild": 1159,
      "ĠAll": 1160,
      "Ġexp": 1161,
      "iel": 1162,
      "ized": 1163,
      "ever": 1164,
      "ired": 1165,
      "meric": 1166,
      "Ġrep": 1167,
      "ger": 1168,
      "Ġcare": 1169,
      "Ġlist": 1170,
      "Ġpoint": 1171,
      "ware": 1172,
      "Ġfound": 1173,
      "Ġprocess": 1174,
      "Ġgl": 1175,
      "Ġpur": 1176,
      "man": 1177,
      "less": 1178,
      "Ġboth": 1179,
      "ody": 1180,
      "ĠTr": 1181,
      "ention": 1182,
      "ways": 1183,
      "Ġplace": 1184,
      "ames": 1185,
      "Ġgener": 1186,
      "Ġrun": 1187,
      "ĠSc": 1188,
      "Ġprogram": 1189,
      "Ġmarket": 1190,
      "Ġtop": 1191,
      "Ġteam": 1192,
      "ĠInd": 1193,
      "Ġlot": 1194,
      "Ġfew": 1195,
      "ĠPh": 1196,
      "Ġext": 1197,
      "ĠCon": 1198,
      "be": 1199,
      "Ġcommun": 1200,
      "Ġusing": 1201,
      "ants": 1202,
      "Ġprof": 1203,
      "uss": 1204,
      "Ġhapp": 1205,
      "ital": 1206,
      "-t": 1207,
      "Ġty": 1208,
      "ology": 1209,
      "Ġdel": 1210,
      "oh": 1211,
      "Ġlar": 1212,
      "ailable": 1213,
      "ĠAmeric": 1214,
      "ĠAt": 1215,
      "ining": 1216,
      "ows": 1217,
      "ĠÂ": 1218,
      "Ġreal": 1219,
      "Ġ#": 1220,
      "Ġob": 1221,
      "Ġmonth": 1222,
      "ering": 1223,
      "-s": 1224,
      "rand": 1225,
      "Ġsol": 1226,
      "Ġlittle": 1227,
      "Ġthings": 1228,
      "ĠShe": 1229,
      "iqu": 1230,
      "Ġval": 1231,
      "Ġdef": 1232,
      "gg": 1233,
      "thing": 1234,
      "ĠIs": 1235,
      "con": 1236,
      "oot": 1237,
      "Ġstate": 1238,
      "Ġbel": 1239,
      "self": 1240,
      "orth": 1241,
      "Ġthree": 1242,
      "ves": 1243,
      "Ġimport": 1244,
      "ern": 1245,
      "Ġfeel": 1246,
      "Ġvar": 1247,
      "ĠWhen": 1248,
      "ott": 1249,
      "ĠCol": 1250,
      "ense": 1251,
      "cept": 1252,
      "Ġref": 1253,
      "ined": 1254,
      "over": 1255,
      ".\"": 1256,
      "Ġsl": 1257,
      "ms": 1258,
      "ĠFr": 1259,
      "ross": 1260,
      "iving": 1261,
      "Ġcor": 1262,
      "aint": 1263,
      "Ġfact": 1264,
      "Ġplan": 1265,
      "ĠOr": 1266,
      "IN": 1267,
      "Ġkeep": 1268,
      "Ġtechn": 1269,
      "Ġcustom": 1270,
      "gy": 1271,
      "ically": 1272,
      "Ġappro": 1273,
      "ession": 1274,
      "Ġpat": 1275,
      "ĠNo": 1276,
      "Ġdata": 1277,
      "ĠWith": 1278,
      "Ġopen": 1279,
      "ON": 1280,
      "rist": 1281,
      "Ġresult": 1282,
      "rol": 1283,
      "The": 1284,
      "Ġmust": 1285,
      "Ġ'": 1286,
      "Ġhealth": 1287,
      "ished": 1288,
      "Ġ.": 1289,
      "Ġwithout": 1290,
      "ĠZ": 1291,
      "Ġfriend": 1292,
      "bers": 1293,
      "Ġduring": 1294,
      "atur": 1295,
      "Ġsmall": 1296,
      "Ġposs": 1297,
      "cent": 1298,
      "ists": 1299,
      "Ġexam": 1300,
      "Ġconf": 1301,
      "Ġdist": 1302,
      "Ġcent": 1303,
      "Ġgame": 1304,
      "ield": 1305,
      "Ġcome": 1306,
      "Ġide": 1307,
      "Ġrece": 1308,
      "Ġonline": 1309,
      "Ġreport": 1310,
      "Ġdri": 1311,
      "ĠSp": 1312,
      "ĠRes": 1313,
      "Ġrest": 1314,
      "Ġavailable": 1315,
      "Ġpartic": 1316,
      "att": 1317,
      "Ġiss": 1318,
      "Ġbig": 1319,
      "Ġpass": 1320,
      "Ġquest": 1321,
      "Ġpay": 1322,
      "Ġresp": 1323,
      "roup": 1324,
      "Ġbetter": 1325,
      "ĠMan": 1326,
      "Ġtry": 1327,
      "Ġwater": 1328,
      "Ġpri": 1329,
      "Ġinterest": 1330,
      "me": 1331,
      "ling": 1332,
      "Ġsomething": 1333,
      "uck": 1334,
      "ged": 1335,
      "Ġsecond": 1336,
      "ially": 1337,
      "Ġanother": 1338,
      "Ġalways": 1339,
      "Ġput": 1340,
      "oney": 1341,
      ",âĢĿ": 1342,
      "Ġincluding": 1343,
      "Ġfr": 1344,
      "Ġeffect": 1345,
      "Ġcompany": 1346,
      "ared": 1347,
      "Ġstand": 1348,
      "Ġnumber": 1349,
      "-b": 1350,
      "Ġschool": 1351,
      "ĠMy": 1352,
      "raph": 1353,
      "ĠUS": 1354,
      "Ġhard": 1355,
      "Ġmov": 1356,
      "Ġhead": 1357,
      "Ġwr": 1358,
      "ism": 1359,
      "ploy": 1360,
      "ote": 1361,
      "Ġwom": 1362,
      "Ġcontin": 1363,
      "âĢĻre": 1364,
      "ĠThat": 1365,
      "Ġtri": 1366,
      "aj": 1367,
      "ision": 1368,
      "aut": 1369,
      "Ġinc": 1370,
      "Ġlet": 1371,
      "Ġpower": 1372,
      "Ġnext": 1373,
      "load": 1374,
      "stand": 1375,
      "ator": 1376,
      "Ġnever": 1377,
      "Ġproble": 1378,
      "Ġbuild": 1379,
      "Ġinf": 1380,
      "Ġclass": 1381,
      "Ġweek": 1382,
      "Ġold": 1383,
      "reen": 1384,
      "ES": 1385,
      "ium": 1386,
      "Ġfamily": 1387,
      ",Ċ": 1388,
      "Ġsoc": 1389,
      "Ġdays": 1390,
      "ral": 1391,
      "ĠPr": 1392,
      "ately": 1393,
      "Ġservice": 1394,
      "Ġperform": 1395,
      "Ġsince": 1396,
      "Ġmus": 1397,
      "ode": 1398,
      "AT": 1399,
      "ior": 1400,
      "inal": 1401,
      "ards": 1402,
      "Ġorgan": 1403,
      "Ġexperience": 1404,
      "Ġsure": 1405,
      "Ġview": 1406,
      "ration": 1407,
      "Ġfull": 1408,
      "Ġmight": 1409,
      "ĠCont": 1410,
      "ĠâĢĺ": 1411,
      "ina": 1412,
      "ipp": 1413,
      "rence": 1414,
      "-f": 1415,
      "Ġbro": 1416,
      "Ġve": 1417,
      "ember": 1418,
      "ann": 1419,
      "Ġproject": 1420,
      "Ġgot": 1421,
      "Ġlevel": 1422,
      "Ġdirect": 1423,
      "ĠMe": 1424,
      "pec": 1425,
      "ertain": 1426,
      "Ġincre": 1427,
      "tt": 1428,
      "ccess": 1429,
      "ats": 1430,
      "Ġlight": 1431,
      "Ġel": 1432,
      "ours": 1433,
      "Ġopp": 1434,
      "ron": 1435,
      "ĠFe": 1436,
      "Ġpos": 1437,
      "pend": 1438,
      "ery": 1439,
      "outh": 1440,
      ".âĢĿĊ": 1441,
      "here": 1442,
      "ffic": 1443,
      "Ġgive": 1444,
      "Ġexpl": 1445,
      "ĠâĢĶ": 1446,
      "ideo": 1447,
      "Ġimportant": 1448,
      "Ġcost": 1449,
      "Ġoper": 1450,
      "ope": 1451,
      "ĠMore": 1452,
      "Ġask": 1453,
      "ered": 1454,
      "ok": 1455,
      "Ġpublic": 1456,
      "Ġear": 1457,
      "Ġbre": 1458,
      "Ġorder": 1459,
      "ems": 1460,
      "ĠApp": 1461,
      "Ġtest": 1462,
      "iversity": 1463,
      "ency": 1464,
      "iver": 1465,
      "ases": 1466,
      "Ġequ": 1467,
      "Ġless": 1468,
      "illion": 1469,
      "ruct": 1470,
      "ĠComm": 1471,
      "Ġsit": 1472,
      "OR": 1473,
      "Ġwithin": 1474,
      "pos": 1475,
      "ird": 1476,
      "ĠMar": 1477,
      "app": 1478,
      "co": 1479,
      "let": 1480,
      "Ġ/": 1481,
      "icle": 1482,
      "ients": 1483,
      "Ġable": 1484,
      "Ġaccess": 1485,
      "Ġagainst": 1486,
      "ified": 1487,
      "Ġlaw": 1488,
      "Ġproper": 1489,
      "ox": 1490,
      "Ġapplic": 1491,
      "Ġeng": 1492,
      "ĠAm": 1493,
      "ably": 1494,
      "ission": 1495,
      "'m": 1496,
      "Ġwebs": 1497,
      "Ġcurrent": 1498,
      "Ġunt": 1499,
      "ĠDes": 1500,
      "ills": 1501,
      "Ġprovide": 1502,
      "ains": 1503,
      "ories": 1504,
      "ĠFl": 1505,
      "ĠPost": 1506,
      "irl": 1507,
      "Ġinvest": 1508,
      "ĠMay": 1509,
      "AN": 1510,
      "Ġca": 1511,
      "hor": 1512,
      "Ġroom": 1513,
      "eng": 1514,
      "Ġbelie": 1515,
      "Ġgrow": 1516,
      "Ġest": 1517,
      "por": 1518,
      "Ġpresent": 1519,
      "Ġpop": 1520,
      "Ġphot": 1521,
      "ream": 1522,
      "ids": 1523,
      "Ġwin": 1524,
      "atter": 1525,
      "ortun": 1526,
      "Ġjob": 1527,
      "Ġ,": 1528,
      "Ġdev": 1529,
      "lish": 1530,
      "Ġprote": 1531,
      "ĠChrist": 1532,
      "ivid": 1533,
      "oint": 1534,
      "ĠDo": 1535,
      "lection": 1536,
      "Ġtoday": 1537,
      "Ġturn": 1538,
      "work": 1539,
      "âĢĶ": 1540,
      "AR": 1541,
      "med": 1542,
      "Ġsing": 1543,
      "ails": 1544,
      "Ġservices": 1545,
      "ĠCan": 1546,
      "ĠEng": 1547,
      "Ġexc": 1548,
      "vern": 1549,
      "Ġ:": 1550,
      "gin": 1551,
      "Ġcase": 1552,
      "Ġsite": 1553,
      "Ġarea": 1554,
      "agement": 1555,
      "____": 1556,
      "Ġcap": 1557,
      "ley": 1558,
      "Ġhum": 1559,
      "Ġprev": 1560,
      "gr": 1561,
      "Ġsal": 1562,
      "ww": 1563,
      "-p": 1564,
      "ĠOne": 1565,
      "ump": 1566,
      "ead": 1567,
      "joy": 1568,
      "ability": 1569,
      "ording": 1570,
      "Ġrese": 1571,
      "Ġintern": 1572,
      "Ġprom": 1573,
      "Ġlooking": 1574,
      "of": 1575,
      "ised": 1576,
      "ider": 1577,
      "Ġaway": 1578,
      "min": 1579,
      "Ġann": 1580,
      "iron": 1581,
      "Ġfood": 1582,
      "tend": 1583,
      "ury": 1584,
      "Ġleg": 1585,
      "br": 1586,
      "ently": 1587,
      "Ġspecial": 1588,
      "ĠCar": 1589,
      "aterial": 1590,
      "Ġmaking": 1591,
      "Ġaddition": 1592,
      "ted": 1593,
      "Ġterm": 1594,
      "ĠNe": 1595,
      "Ġmoney": 1596,
      "room": 1597,
      "Ġmeet": 1598,
      "Ġname": 1599,
      "Ġreview": 1600,
      "Ġconst": 1601,
      "Ġdem": 1602,
      "atures": 1603,
      "iting": 1604,
      "Ġword": 1605,
      "ization": 1606,
      "ĠCent": 1607,
      "ĠComp": 1608,
      "Ġbas": 1609,
      "ĠX": 1610,
      "Ġfac": 1611,
      "-d": 1612,
      "Ġsw": 1613,
      "ane": 1614,
      "Ġworking": 1615,
      "mber": 1616,
      "Ġthing": 1617,
      "enn": 1618,
      "ify": 1619,
      ",\"": 1620,
      "EN": 1621,
      "Ġgovern": 1622,
      "omm": 1623,
      "ĠOur": 1624,
      "Ġchange": 1625,
      "cri": 1626,
      ".,": 1627,
      ").Ċ": 1628,
      "Ġmar": 1629,
      "Ġbuy": 1630,
      "aster": 1631,
      "Ġnight": 1632,
      "Ġlarge": 1633,
      "âĢĻve": 1634,
      "Ġ*": 1635,
      "ĠSte": 1636,
      "Ġchang": 1637,
      "Ġwhy": 1638,
      "-c": 1639,
      "itions": 1640,
      "fer": 1641,
      "'re": 1642,
      "Ġfour": 1643,
      "ney": 1644,
      "duct": 1645,
      "Ġcourse": 1646,
      "Ġchildren": 1647,
      "Ġhaving": 1648,
      "aim": 1649,
      "Ġuntil": 1650,
      "arent": 1651,
      "Ġkind": 1652,
      "Ġline": 1653,
      "Ġpa": 1654,
      "Ġopt": 1655,
      "Ġbeh": 1656,
      "oci": 1657,
      "aring": 1658,
      ".S": 1659,
      "ten": 1660,
      "ĠBy": 1661,
      "urs": 1662,
      "Ġcond": 1663,
      "Ġhist": 1664,
      "]Ċ": 1665,
      "iven": 1666,
      "Ġair": 1667,
      "ries": 1668,
      "ising": 1669,
      "Ġallow": 1670,
      "Ġactiv": 1671,
      "iety": 1672,
      "Ġla": 1673,
      "utes": 1674,
      "Ġdra": 1675,
      "ng": 1676,
      "ination": 1677,
      "une": 1678,
      "Ġwrit": 1679,
      "uro": 1680,
      "ĠAb": 1681,
      "Ġcomplete": 1682,
      "augh": 1683,
      "Ġeasy": 1684,
      "Ġpract": 1685,
      "ĠGod": 1686,
      "Ġproducts": 1687,
      "ential": 1688,
      "oor": 1689,
      "Ġcontrol": 1690,
      "conom": 1691,
      "Ġconne": 1692,
      "Ġhouse": 1693,
      "ots": 1694,
      "ush": 1695,
      "ĠQu": 1696,
      "ĠThese": 1697,
      "Ġunderstand": 1698,
      "Ġquality": 1699,
      "ĠCo": 1700,
      "ohn": 1701,
      "Ġlocal": 1702,
      "Ġtimes": 1703,
      "ĠNot": 1704,
      "ĠYour": 1705,
      "Ġelect": 1706,
      "Ġcheck": 1707,
      "Ġimpro": 1708,
      "Ġsoft": 1709,
      "Ġleft": 1710,
      "ived": 1711,
      "Ġindust": 1712,
      "ec": 1713,
      "ĠChe": 1714,
      "Ġemploy": 1715,
      "Ġpast": 1716,
      "Ġfollowing": 1717,
      "ĠBr": 1718,
      "yle": 1719,
      "rap": 1720,
      "Ġgroup": 1721,
      "ource": 1722,
      "crib": 1723,
      "the": 1724,
      "Ġbased": 1725,
      "Ġsays": 1726,
      "Ġes": 1727,
      "Ġwebsite": 1728,
      "ateg": 1729,
      "enef": 1730,
      "ique": 1731,
      "ĠMed": 1732,
      "err": 1733,
      "acy": 1734,
      "Ġstudents": 1735,
      "Ġside": 1736,
      "Ġmen": 1737,
      "'ve": 1738,
      "ĠIm": 1739,
      "Ġenjoy": 1740,
      "itive": 1741,
      "ĠSy": 1742,
      "Ġaccount": 1743,
      "ĠAfter": 1744,
      "Ġnear": 1745,
      "Ġtell": 1746,
      "Ġtoget": 1747,
      "Ġtogether": 1748,
      "Ġinclude": 1749,
      "Ġhot": 1750,
      "AL": 1751,
      "Ġever": 1752,
      "Ġbit": 1753,
      "ĠGu": 1754,
      "Ġlearn": 1755,
      "ele": 1756,
      "âĢĻm": 1757,
      "veral": 1758,
      "Ġago": 1759,
      "Ġshort": 1760,
      "ured": 1761,
      "part": 1762,
      "ai": 1763,
      "Ġexpect": 1764,
      "Ġcreat": 1765,
      "Ġalong": 1766,
      "by": 1767,
      "Ġbody": 1768,
      "ubl": 1769,
      "Ġoften": 1770,
      "ĠServ": 1771,
      "ready": 1772,
      "upp": 1773,
      "ee": 1774,
      "Ġdidn": 1775,
      "Ġtreat": 1776,
      "Ġmove": 1777,
      "ajor": 1778,
      "Ġsuccess": 1779,
      "Ġenough": 1780,
      "-m": 1781,
      "Ġtrad": 1782,
      "ĠRead": 1783,
      "uper": 1784,
      "oice": 1785,
      "Ġoffer": 1786,
      "ocus": 1787,
      "uff": 1788,
      "Ġcou": 1789,
      "ands": 1790,
      "ĠUniversity": 1791,
      "Ġtalk": 1792,
      "Ġstory": 1793,
      "Ġmil": 1794,
      "Ġpar": 1795,
      "uly": 1796,
      "Ġvideo": 1797,
      "Ġevent": 1798,
      "ides": 1799,
      "Ġmakes": 1800,
      "atic": 1801,
      "Ġdone": 1802,
      "rop": 1803,
      "Ġet": 1804,
      "iam": 1805,
      "Ġmult": 1806,
      "alf": 1807,
      "ividual": 1808,
      "hod": 1809,
      "Ġmaterial": 1810,
      "ony": 1811,
      "!!": 1812,
      "Ġnon": 1813,
      "ED": 1814,
      "ained": 1815,
      "ips": 1816,
      "inc": 1817,
      "book": 1818,
      "Ġwomen": 1819,
      "side": 1820,
      "ĠInst": 1821,
      "sw": 1822,
      "Ġneeds": 1823,
      "Ġrecord": 1824,
      "ĠTH": 1825,
      "Ġocc": 1826,
      "ober": 1827,
      "Ġlive": 1828,
      "ĠIntern": 1829,
      "Ġleast": 1830,
      "Ġbecome": 1831,
      "ither": 1832,
      "ĠJohn": 1833,
      "Ġmeans": 1834,
      "Ġpossible": 1835,
      "Ġmean": 1836,
      "Ġlim": 1837,
      ".\"Ċ": 1838,
      "Ġfav": 1839,
      "Ġcalled": 1840,
      "Ġnet": 1841,
      "iday": 1842,
      "Ġfore": 1843,
      "idd": 1844,
      "Ġalready": 1845,
      "Ġgetting": 1846,
      "Ġfar": 1847,
      "ored": 1848,
      "ĠWor": 1849,
      "ĠAmerican": 1850,
      "ex": 1851,
      "osed": 1852,
      "Ġcountry": 1853,
      "Ġpot": 1854,
      "ĠAss": 1855,
      "Ġbeaut": 1856,
      "Ġvers": 1857,
      "Ġseason": 1858,
      "viron": 1859,
      "Ġoffic": 1860,
      "Ġnews": 1861,
      "Ġmusic": 1862,
      "âĢĻll": 1863,
      "Ġpersonal": 1864,
      "Ġele": 1865,
      "Ġlow": 1866,
      "yl": 1867,
      "itor": 1868,
      "ĠHowever": 1869,
      "Ġcertain": 1870,
      "Ġexample": 1871,
      "aff": 1872,
      "Ġcharact": 1873,
      "ones": 1874,
      "ĠPre": 1875,
      "Ġport": 1876,
      "Ġtem": 1877,
      "opp": 1878,
      "Ġprofession": 1879,
      "Ġseveral": 1880,
      "Ġanal": 1881,
      "ergy": 1882,
      "IC": 1883,
      "IS": 1884,
      "IT": 1885,
      "aces": 1886,
      "ograph": 1887,
      "Ġresearch": 1888,
      "ĠGr": 1889,
      "Ġtre": 1890,
      "ances": 1891,
      "Ġreturn": 1892,
      "son": 1893,
      "Ġcreate": 1894,
      "ĠDis": 1895,
      "oll": 1896,
      "Ġkey": 1897,
      "Ġothers": 1898,
      "aps": 1899,
      "Ġhold": 1900,
      "Ġbenef": 1901,
      "icy": 1902,
      "Ġprice": 1903,
      "Ġdoing": 1904,
      "Ġmembers": 1905,
      "Ġindividual": 1906,
      "ape": 1907,
      "ĠEm": 1908,
      "uture": 1909,
      "Ġcommunity": 1910,
      "Ġquick": 1911,
      "Ġz": 1912,
      "urity": 1913,
      "Ġorig": 1914,
      "Ġcomes": 1915,
      "Ġcontact": 1916,
      "ift": 1917,
      "Ġ...": 1918,
      "Ġactually": 1919,
      "ister": 1920,
      "Ġmind": 1921,
      "Ġsocial": 1922,
      "urther": 1923,
      "itc": 1924,
      "Ġperfect": 1925,
      "uf": 1926,
      "Ġmain": 1927,
      "ĠKe": 1928,
      "Ġwa": 1929,
      "ĠNow": 1930,
      "Ġthought": 1931,
      "ino": 1932,
      "Ġgovernment": 1933,
      "Ġtyp": 1934,
      "Ġmajor": 1935,
      "sel": 1936,
      "Ġworks": 1937,
      "osp": 1938,
      "most": 1939,
      "irc": 1940,
      "AS": 1941,
      "ference": 1942,
      "arr": 1943,
      "ĠUnited": 1944,
      "Ġcame": 1945,
      "Ġdoesn": 1946,
      "Ġpack": 1947,
      "ilar": 1948,
      "not": 1949,
      "Ġspecific": 1950,
      "Ġey": 1951,
      "Ġdevelopment": 1952,
      "Ġpage": 1953,
      "ĠJan": 1954,
      "Ġdeal": 1955,
      "ĠEd": 1956,
      "Ġblog": 1957,
      "ienc": 1958,
      "ĠTw": 1959,
      "Ġhours": 1960,
      "ster": 1961,
      "Ġdr": 1962,
      "Ġfocus": 1963,
      "-l": 1964,
      "Ġconc": 1965,
      "ians": 1966,
      "ĠMin": 1967,
      "Ġste": 1968,
      "Ġstep": 1969,
      "Ġreason": 1970,
      "'ll": 1971,
      "Ġonce": 1972,
      "Ġmonths": 1973,
      "wards": 1974,
      "anks": 1975,
      "Ġclear": 1976,
      "Ġmom": 1977,
      "Ġant": 1978,
      "Ġcomb": 1979,
      "oose": 1980,
      "iful": 1981,
      "Ġparticular": 1982,
      "Ġeduc": 1983,
      "Ġfund": 1984,
      "Ġcut": 1985,
      "ulation": 1986,
      "Ġfriends": 1987,
      "ges": 1988,
      "oard": 1989,
      "vironment": 1990,
      "....": 1991,
      "ĠPart": 1992,
      "Ġcity": 1993,
      "ctor": 1994,
      "Ġcamp": 1995,
      "ights": 1996,
      "af": 1997,
      "Ġmillion": 1998,
      "ĠState": 1999,
      "Ġproblem": 2000,
      "Ġredu": 2001,
      "Ġacross": 2002,
      "Ġpress": 2003,
      "resent": 2004,
      "vert": 2005,
      "Ġrequire": 2006,
      "Ġvisit": 2007,
      "Ġopportun": 2008,
      "play": 2009,
      "Ġyet": 2010,
      "//": 2011,
      "Ġx": 2012,
      "orts": 2013,
      "ĠHere": 2014,
      "oon": 2015,
      "ung": 2016,
      "ocu": 2017,
      "Ġtool": 2018,
      "ĠPer": 2019,
      "bl": 2020,
      "Ġsum": 2021,
      "Ġident": 2022,
      "utions": 2023,
      "Ġcover": 2024,
      "Ġhappen": 2025,
      "Ġ--": 2026,
      "par": 2027,
      "Ġheart": 2028,
      "ĠBro": 2029,
      "aken": 2030,
      "roll": 2031,
      "iod": 2032,
      "ilities": 2033,
      "irt": 2034,
      "Ġwent": 2035,
      "RE": 2036,
      "ĠUs": 2037,
      "reet": 2038,
      "ĠâĢ¢": 2039,
      "ĠCal": 2040,
      "Ġstarted": 2041,
      "ĠAdd": 2042,
      "ĠPe": 2043,
      "Ġknown": 2044,
      "Ġstudy": 2045,
      "Ġtook": 2046,
      "isk": 2047,
      "Ġclean": 2048,
      "Ġpie": 2049,
      "Ġshare": 2050,
      "Ġinvol": 2051,
      "Ġess": 2052,
      "ources": 2053,
      "ball": 2054,
      "unch": 2055,
      "atural": 2056,
      "Ġwon": 2057,
      "Ġpriv": 2058,
      "ply": 2059,
      "Ġsex": 2060,
      "Ġbelow": 2061,
      "----": 2062,
      "Ġhig": 2063,
      "Ġeconom": 2064,
      "://": 2065,
      "Ġsingle": 2066,
      "Ġabove": 2067,
      "Ġrele": 2068,
      "Ġpurch": 2069,
      "Ġwind": 2070,
      "ĠSm": 2071,
      "Ġstrong": 2072,
      "ĠOct": 2073,
      "Ġfre": 2074,
      "Ġfuture": 2075,
      "Ġappear": 2076,
      "Ġsound": 2077,
      "Ġgirl": 2078,
      "ilt": 2079,
      "Ġmethod": 2080,
      "Ġlater": 2081,
      "ĠGl": 2082,
      "Ġgiven": 2083,
      "Ġvol": 2084,
      "de": 2085,
      "Ġclaim": 2086,
      "obile": 2087,
      "Ġweb": 2088,
      "Ġfeatures": 2089,
      "eral": 2090,
      "ging": 2091,
      "Ġcal": 2092,
      "gle": 2093,
      "Ġauthor": 2094,
      "Ġstay": 2095,
      "hers": 2096,
      "now": 2097,
      "anies": 2098,
      "rodu": 2099,
      "ĠEuro": 2100,
      "Ġdiscuss": 2101,
      "Ġclose": 2102,
      "Ġbring": 2103,
      "Ġgames": 2104,
      "ufact": 2105,
      "Ġprob": 2106,
      "illed": 2107,
      "idence": 2108,
      "ĠJust": 2109,
      "Ġtype": 2110,
      "Ġminutes": 2111,
      "Ġhuman": 2112,
      "Ġearly": 2113,
      "Ġeverything": 2114,
      "Ġcontent": 2115,
      "Ġwalk": 2116,
      "for": 2117,
      "Ġcompet": 2118,
      "ĠReg": 2119,
      "Ġcomput": 2120,
      "Ġquestion": 2121,
      "ĠDr": 2122,
      "ĠCount": 2123,
      "lege": 2124,
      "rain": 2125,
      "ĠBu": 2126,
      "Ġvalue": 2127,
      "Ġtax": 2128,
      "Ġbed": 2129,
      "ĠCity": 2130,
      "ural": 2131,
      "Ġmot": 2132,
      "Ġstore": 2133,
      "Ġtot": 2134,
      "rew": 2135,
      "Ġamount": 2136,
      "ĠPM": 2137,
      "ison": 2138,
      "Ġspace": 2139,
      "ĠPol": 2140,
      "Ġblack": 2141,
      "Ġsomeone": 2142,
      "ĠFree": 2143,
      "ĠSome": 2144,
      "Ġbegin": 2145,
      "Ġmess": 2146,
      "rict": 2147,
      "AC": 2148,
      "Ġface": 2149,
      "lex": 2150,
      "ĠâĢ¦": 2151,
      "Ġpict": 2152,
      "**": 2153,
      "Ġwhole": 2154,
      "ĠOf": 2155,
      "urch": 2156,
      "Ġcred": 2157,
      "sh": 2158,
      "Ġfield": 2159,
      "Ġbreak": 2160,
      "ites": 2161,
      "ume": 2162,
      "Ġindustry": 2163,
      "ĠFrom": 2164,
      "Ġaddress": 2165,
      "ĠAcc": 2166,
      "ched": 2167,
      "Ġseen": 2168,
      "iously": 2169,
      "ĠMr": 2170,
      "ental": 2171,
      "ancial": 2172,
      "Ġenc": 2173,
      "Ġseries": 2174,
      "ourn": 2175,
      "Ġrelations": 2176,
      "ask": 2177,
      "ches": 2178,
      "ibility": 2179,
      "ued": 2180,
      "aining": 2181,
      "ĠAug": 2182,
      "Ġwond": 2183,
      "ners": 2184,
      "Ġresults": 2185,
      "Ġwhether": 2186,
      "Ġsize": 2187,
      "Ġjo": 2188,
      "Ġsearch": 2189,
      "ĠArt": 2190,
      "Ġfront": 2191,
      "Ġrespons": 2192,
      "Ġbar": 2193,
      "nder": 2194,
      "ille": 2195,
      "Ġrecomm": 2196,
      "ĠAg": 2197,
      "irm": 2198,
      "Ġrepl": 2199,
      "imate": 2200,
      "yn": 2201,
      "Ġmach": 2202,
      "Ġrecommend": 2203,
      "inks": 2204,
      "though": 2205,
      "OU": 2206,
      "Ġfive": 2207,
      "Ġbelieve": 2208,
      "Ġanything": 2209,
      "Ġcommon": 2210,
      "ĠWorld": 2211,
      "ĠApr": 2212,
      "Ġyoung": 2213,
      "agn": 2214,
      "Ġplease": 2215,
      "cription": 2216,
      "ided": 2217,
      "pecially": 2218,
      "Ġoffers": 2219,
      "Ġbad": 2220,
      "ional": 2221,
      "Ġmor": 2222,
      "Ġdue": 2223,
      "ĠAut": 2224,
      "Ġwatch": 2225,
      "Ġchall": 2226,
      "ole": 2227,
      "Ġdownload": 2228,
      "Ġhtt": 2229,
      "aur": 2230,
      "itted": 2231,
      "Ġrange": 2232,
      "Ġinstall": 2233,
      "Ġtold": 2234,
      "Ġperiod": 2235,
      "ager": 2236,
      "fort": 2237,
      "itch": 2238,
      "ĠWill": 2239,
      "Ġamong": 2240,
      "Ġmedia": 2241,
      "ively": 2242,
      "Ġens": 2243,
      "ĠInt": 2244,
      "atform": 2245,
      "Ġage": 2246,
      "cer": 2247,
      "angu": 2248,
      "Ġfilm": 2249,
      "Ġaud": 2250,
      "ĠWind": 2251,
      "Ġpolit": 2252,
      "Ġcard": 2253,
      "ĠYork": 2254,
      "icro": 2255,
      "raft": 2256,
      "put": 2257,
      "Ġansw": 2258,
      "Ġâ": 2259,
      "Ġcult": 2260,
      "uation": 2261,
      "ĠStud": 2262,
      "elt": 2263,
      "ification": 2264,
      "umb": 2265,
      "Ġsoftware": 2266,
      "Ġhistory": 2267,
      "Ġeither": 2268,
      "ING": 2269,
      "Ġhope": 2270,
      "ruction": 2271,
      "ĠWhile": 2272,
      "Ġidea": 2273,
      "ĠAct": 2274,
      "Ġbrand": 2275,
      "tty": 2276,
      "urance": 2277,
      "Ġtaking": 2278,
      "Ġreading": 2279,
      "ĠPres": 2280,
      "fully": 2281,
      "Ġtext": 2282,
      "Ġpercent": 2283,
      "Ġfall": 2284,
      "Ġupd": 2285,
      "Ġsimple": 2286,
      "Ġmeas": 2287,
      "go": 2288,
      "-in": 2289,
      "Ġquestions": 2290,
      "ĠOff": 2291,
      "fic": 2292,
      "Ġfavor": 2293,
      "Ġmaint": 2294,
      "Ġaff": 2295,
      "wh": 2296,
      "ests": 2297,
      "Ġcompanies": 2298,
      "asing": 2299,
      "Ġseem": 2300,
      "Ġphys": 2301,
      "Ġissues": 2302,
      "abor": 2303,
      "ogn": 2304,
      "Ġlo": 2305,
      "Ġfurther": 2306,
      "come": 2307,
      "ID": 2308,
      "Ġhy": 2309,
      "Ġbeautiful": 2310,
      "Ġoil": 2311,
      "ĠMc": 2312,
      "Ġcell": 2313,
      "obal": 2314,
      "ledge": 2315,
      "Ġconsider": 2316,
      "ION": 2317,
      "ators": 2318,
      "Ġvarious": 2319,
      "ĠSouth": 2320,
      "Ġsell": 2321,
      "Ġhalf": 2322,
      "gest": 2323,
      "ĠStates": 2324,
      "back": 2325,
      "Ġmiss": 2326,
      "Ġprovides": 2327,
      "ops": 2328,
      "Ġdocu": 2329,
      "Ġmanagement": 2330,
      "astic": 2331,
      "opy": 2332,
      "ĠDon": 2333,
      "ĠHigh": 2334,
      "ises": 2335,
      "ĠEurope": 2336,
      "ĠEl": 2337,
      "ried": 2338,
      "Ġposition": 2339,
      "Ġenvironment": 2340,
      "ication": 2341,
      "ĠMarch": 2342,
      "Ġtravel": 2343,
      "Ġpick": 2344,
      "Ġtechnology": 2345,
      "ĠBlack": 2346,
      "oe": 2347,
      "ĠSchool": 2348,
      "face": 2349,
      "Ġtrack": 2350,
      "Ġrequired": 2351,
      "ĠTra": 2352,
      "Ġdig": 2353,
      "resh": 2354,
      "ibr": 2355,
      "selves": 2356,
      "Ġalmost": 2357,
      "Ġlog": 2358,
      "ables": 2359,
      "my": 2360,
      "ĠPlease": 2361,
      "ĠNational": 2362,
      "ĠJune": 2363,
      "Ã©": 2364,
      "Ġquite": 2365,
      "to": 2366,
      "Ġentire": 2367,
      "uary": 2368,
      "Ġemail": 2369,
      "ama": 2370,
      "ĠBar": 2371,
      "ĠSept": 2372,
      "-h": 2373,
      "Ġpain": 2374,
      "OT": 2375,
      "Ġlink": 2376,
      "Ġenergy": 2377,
      "Ġdeb": 2378,
      "Ġeveryone": 2379,
      "Ġbuilding": 2380,
      "Ġdou": 2381,
      "ĠCor": 2382,
      "used": 2383,
      "ĠHis": 2384,
      "Ġcrit": 2385,
      "Ġred": 2386,
      "Ġ...Ċ": 2387,
      "Ġperformance": 2388,
      "ze": 2389,
      "mb": 2390,
      "Ġsugg": 2391,
      "oid": 2392,
      "Ġself": 2393,
      "Ġprovided": 2394,
      "aging": 2395,
      "ĠPa": 2396,
      "ĠDep": 2397,
      "ensive": 2398,
      "erc": 2399,
      "Ġtable": 2400,
      "val": 2401,
      "ĠAM": 2402,
      "cle": 2403,
      "Ġwhite": 2404,
      "Ġapplication": 2405,
      "Ġimprove": 2406,
      "oved": 2407,
      "ĠAust": 2408,
      "ires": 2409,
      "Ġselect": 2410,
      "Ġdi": 2411,
      "Ġtrying": 2412,
      "Ġdeterm": 2413,
      "Ġetc": 2414,
      "OM": 2415,
      "ĠNorth": 2416,
      "edd": 2417,
      "omes": 2418,
      "Ġcirc": 2419,
      "Ġprotect": 2420,
      "ada": 2421,
      "clus": 2422,
      "Ġland": 2423,
      "arning": 2424,
      "ĠGe": 2425,
      "ĠFeb": 2426,
      "chie": 2427,
      "Ġsent": 2428,
      "Ġcolor": 2429,
      "ĠFin": 2430,
      "ĠSer": 2431,
      "Ġnecess": 2432,
      "Ġfunction": 2433,
      "ĠCr": 2434,
      "rie": 2435,
      "Ġcook": 2436,
      "ring": 2437,
      "Ġhost": 2438,
      "itten": 2439,
      "ST": 2440,
      "arth": 2441,
      "era": 2442,
      "ux": 2443,
      "Ġeff": 2444,
      "itional": 2445,
      "ĠDay": 2446,
      "Ġtaken": 2447,
      "Ġpretty": 2448,
      "ĠUp": 2449,
      "Ġparent": 2450,
      "Ġabs": 2451,
      "ĠGet": 2452,
      "iate": 2453,
      "Ġelse": 2454,
      "Ġcharacter": 2455,
      "Ġliving": 2456,
      "vent": 2457,
      "Ġincludes": 2458,
      "ules": 2459,
      "Ġfoot": 2460,
      "Ġadded": 2461,
      "ĠApril": 2462,
      "ĠHealth": 2463,
      "rug": 2464,
      "Ġlay": 2465,
      "Ġrelationship": 2466,
      "earch": 2467,
      "We": 2468,
      "atest": 2469,
      "Ġthird": 2470,
      "itting": 2471,
      "aged": 2472,
      "Ġaccording": 2473,
      "gress": 2474,
      "Ġneeded": 2475,
      "Ġprobably": 2476,
      "Ġespecially": 2477,
      "-y": 2478,
      "nding": 2479,
      "Ġflow": 2480,
      "ficult": 2481,
      "Ġconnect": 2482,
      "Ġtraining": 2483,
      "Th": 2484,
      "Ġphone": 2485,
      "Ġprofessional": 2486,
      "Ġcustomers": 2487,
      "Ġissue": 2488,
      "Ġpopular": 2489,
      "eth": 2490,
      "ĠMon": 2491,
      "Ġarticle": 2492,
      "Ġwanted": 2493,
      "iol": 2494,
      "ĠJuly": 2495,
      "Ġwriting": 2496,
      "minist": 2497,
      "LE": 2498,
      "ĠTHE": 2499,
      "Ġdam": 2500,
      "Ġexist": 2501,
      "Ġproperty": 2502,
      "ĠNews": 2503,
      "Ġwords": 2504,
      "Ġoffice": 2505,
      "ĠRep": 2506,
      "ese": 2507,
      "Ġhowever": 2508,
      "Ġsignific": 2509,
      "aching": 2510,
      "ĠAf": 2511,
      "Ġsoon": 2512,
      "iber": 2513,
      "reme": 2514,
      "IG": 2515,
      "uk": 2516,
      "aily": 2517,
      "aced": 2518,
      "ana": 2519,
      "Ġtrue": 2520,
      "ety": 2521,
      "Ġproblems": 2522,
      "Ġstat": 2523,
      "Ġparty": 2524,
      "ĠPark": 2525,
      "oogle": 2526,
      "Ġmanufact": 2527,
      "olution": 2528,
      "Ġcoming": 2529,
      "Ġareas": 2530,
      "ĠIN": 2531,
      "iple": 2532,
      "Ġpaper": 2533,
      "Ġsimply": 2534,
      "Ġ+": 2535,
      "-w": 2536,
      "Ġsubject": 2537,
      "Ġcomments": 2538,
      "ude": 2539,
      "Ġrather": 2540,
      "ĠSec": 2541,
      "Ġdetails": 2542,
      "ags": 2543,
      "Ġengine": 2544,
      "mit": 2545,
      "Ġdifficult": 2546,
      "Ġsimilar": 2547,
      "Ġdate": 2548,
      "Ġsle": 2549,
      "Ġisn": 2550,
      "anced": 2551,
      "ĠAre": 2552,
      "Ġaction": 2553,
      "Ġnothing": 2554,
      "ĠPar": 2555,
      "âĢĵ": 2556,
      "Ġfast": 2557,
      "Ġsuper": 2558,
      "eter": 2559,
      "Ġrepresent": 2560,
      "Ġaccept": 2561,
      "aby": 2562,
      "Ġagree": 2563,
      "Ġwide": 2564,
      "ĠSim": 2565,
      "Ġmodel": 2566,
      "ler": 2567,
      "ĠSw": 2568,
      "ĠPosted": 2569,
      "Ġways": 2570,
      "head": 2571,
      "Ġrespect": 2572,
      "Ġmatter": 2573,
      "pro": 2574,
      "Ġpoints": 2575,
      "ĠOctober": 2576,
      "ades": 2577,
      "reg": 2578,
      "ival": 2579,
      "AM": 2580,
      "Ġdesigned": 2581,
      "ipment": 2582,
      "Ġstaff": 2583,
      "ouch": 2584,
      "oom": 2585,
      "Ġlikely": 2586,
      "ãģ": 2587,
      "Ġupon": 2588,
      "Ġnatural": 2589,
      "li": 2590,
      ";Ċ": 2591,
      "ĠOut": 2592,
      "cial": 2593,
      "Ġinit": 2594,
      "cy": 2595,
      "nes": 2596,
      "ĠPat": 2597,
      "uge": 2598,
      "Ġdescrib": 2599,
      "Ġprint": 2600,
      "Ġprep": 2601,
      "Ġsix": 2602,
      "Ġgeneral": 2603,
      "Ġnice": 2604,
      "Ġfail": 2605,
      "rect": 2606,
      "Ġuser": 2607,
      "Ġparticip": 2608,
      "Ġexperienc": 2609,
      "Ġill": 2610,
      "icles": 2611,
      "Ġasked": 2612,
      "ek": 2613,
      "ĠSeptember": 2614,
      "Ġnetwork": 2615,
      "Ġversion": 2616,
      "Ġfile": 2617,
      "ĠChar": 2618,
      "che": 2619,
      "ĠJanuary": 2620,
      "Ġweeks": 2621,
      "Ġassoci": 2622,
      "Ġunique": 2623,
      "ĠHouse": 2624,
      "ĠNove": 2625,
      "Ġfire": 2626,
      "oud": 2627,
      "ĠSal": 2628,
      "Ġdefin": 2629,
      "arget": 2630,
      "ule": 2631,
      "ET": 2632,
      "org": 2633,
      "Ġextra": 2634,
      "ny": 2635,
      "istic": 2636,
      "cret": 2637,
      "Ġsat": 2638,
      "Ġoptions": 2639,
      "ĠAugust": 2640,
      "ĠDav": 2641,
      "Ġrisk": 2642,
      "Ġop": 2643,
      "âĢ¦Ċ": 2644,
      "Ġassist": 2645,
      "Ġinfl": 2646,
      "oes": 2647,
      "ĠBest": 2648,
      "Ġkids": 2649,
      "Ġannoun": 2650,
      "Ġregard": 2651,
      "ief": 2652,
      "ĠAN": 2653,
      "Ġtit": 2654,
      "Ġusers": 2655,
      "Ġbox": 2656,
      "ret": 2657,
      "Ġyourself": 2658,
      "ĠCenter": 2659,
      "ĠFirst": 2660,
      "iter": 2661,
      "apt": 2662,
      "Ġshall": 2663,
      "Ġsecurity": 2664,
      "ĠCons": 2665,
      "ĠHome": 2666,
      "aker": 2667,
      "Ġfinancial": 2668,
      "Ġconsum": 2669,
      "Ġvia": 2670,
      "ĠWest": 2671,
      "Ġtakes": 2672,
      "ĠDesign": 2673,
      "ĠSk": 2674,
      "Ġanim": 2675,
      "Ġrad": 2676,
      "Ġfig": 2677,
      "Ġshows": 2678,
      "Ġemb": 2679,
      "izing": 2680,
      "Ġstyle": 2681,
      "Ġseems": 2682,
      "ĠAmerica": 2683,
      "Ġbehind": 2684,
      "Ġsong": 2685,
      "Ġobject": 2686,
      "Ġcontinue": 2687,
      "Ġlik": 2688,
      "Ġdom": 2689,
      "ysis": 2690,
      "Ġcannot": 2691,
      "word": 2692,
      "Ġbott": 2693,
      "ĠSoc": 2694,
      "Ġdeath": 2695,
      "Ġsil": 2696,
      "Ġsystems": 2697,
      "Ġchanges": 2698,
      "Ġforward": 2699,
      "verage": 2700,
      "Ġground": 2701,
      "Ġincrease": 2702,
      "oph": 2703,
      "-S": 2704,
      "Ġloss": 2705,
      "ĠMus": 2706,
      "Ġrole": 2707,
      "Ġfeature": 2708,
      "Ġ@": 2709,
      "ĠWindows": 2710,
      "Ġroad": 2711,
      "gu": 2712,
      "Ġimpact": 2713,
      "Ġclick": 2714,
      "ĠThen": 2715,
      "cember": 2716,
      "ĠSub": 2717,
      "Ġpric": 2718,
      "Ġevents": 2719,
      "Ġsignificant": 2720,
      "Ġmember": 2721,
      "Ġachie": 2722,
      "ĠFriday": 2723,
      "Ġoutside": 2724,
      "Ġstruct": 2725,
      "Ġcoun": 2726,
      "Ġ>": 2727,
      "ĠWas": 2728,
      "iff": 2729,
      "ĠHer": 2730,
      "Ġsafe": 2731,
      "Ġimage": 2732,
      "ĠVal": 2733,
      "aving": 2734,
      "Ġoriginal": 2735,
      "-st": 2736,
      "overed": 2737,
      "Ġestab": 2738,
      "azing": 2739,
      "ham": 2740,
      "Ġautom": 2741,
      "cing": 2742,
      "Ġcomputer": 2743,
      "Ġstop": 2744,
      "Ġwall": 2745,
      "Ġhon": 2746,
      "idge": 2747,
      "anguage": 2748,
      "ĠOver": 2749,
      "Ġcomfort": 2750,
      "ĠEvery": 2751,
      "Ġwonder": 2752,
      "Ġinside": 2753,
      "ĠDown": 2754,
      "Ġbase": 2755,
      "Ġgen": 2756,
      "Ġlonger": 2757,
      "ĠRed": 2758,
      "Ġmat": 2759,
      "Ġrunning": 2760,
      "ma": 2761,
      "Ġcoll": 2762,
      "Ġreceived": 2763,
      "Ġball": 2764,
      "just": 2765,
      "Ġfinal": 2766,
      "empt": 2767,
      "Ġrate": 2768,
      "dd": 2769,
      "Ġscreen": 2770,
      "itter": 2771,
      "ĠOb": 2772,
      "Ġswe": 2773,
      "ĠGener": 2774,
      "Ġcreated": 2775,
      "Ġanyone": 2776,
      "ground": 2777,
      "ples": 2778,
      "ĠCour": 2779,
      "Ġut": 2780,
      "EC": 2781,
      "Ġusually": 2782,
      "Ġskin": 2783,
      "ublished": 2784,
      "IL": 2785,
      "Ġcouple": 2786,
      "In": 2787,
      "Ġchoose": 2788,
      "ĠNovember": 2789,
      "Ġready": 2790,
      "Ġful": 2791,
      "itchen": 2792,
      "ming": 2793,
      "Ġtreatment": 2794,
      "Ġfit": 2795,
      "action": 2796,
      "Ġinde": 2797,
      "Ġexpress": 2798,
      "Ġweight": 2799,
      "imum": 2800,
      "ĠReview": 2801,
      "Ġrecent": 2802,
      "Ġsens": 2803,
      "Ġdog": 2804,
      "ĠSupp": 2805,
      "Ġsuggest": 2806,
      "Ġhigher": 2807,
      "ĠMost": 2808,
      "Ġdevice": 2809,
      "ought": 2810,
      "ĠDirect": 2811,
      "Ġknowledge": 2812,
      "lier": 2813,
      "ĠLet": 2814,
      "hib": 2815,
      "Ġnorm": 2816,
      "Ġheld": 2817,
      "atory": 2818,
      "iddle": 2819,
      "ĠEnglish": 2820,
      "Ġcomment": 2821,
      "nov": 2822,
      "ĠWell": 2823,
      "Ġworth": 2824,
      "Ġdepend": 2825,
      "Ġcredit": 2826,
      "Ġveh": 2827,
      "Ġcam": 2828,
      ".m": 2829,
      "ĠHar": 2830,
      "Ġstri": 2831,
      "irth": 2832,
      "ĠPresident": 2833,
      "ees": 2834,
      "________": 2835,
      "Ġleave": 2836,
      "Ġpan": 2837,
      "Ġsales": 2838,
      "Ġcontract": 2839,
      "ĠDecember": 2840,
      "EL": 2841,
      "Ġrecogn": 2842,
      "ĠTV": 2843,
      "Ġeducation": 2844,
      "oring": 2845,
      "ĠCounty": 2846,
      "sy": 2847,
      "Ġhttp": 2848,
      "nds": 2849,
      "na": 2850,
      "Ġbooks": 2851,
      "Ġtotal": 2852,
      "Ġhappy": 2853,
      "Ġconcern": 2854,
      "Ġattack": 2855,
      "Ġinj": 2856,
      "OS": 2857,
      "cast": 2858,
      "Ġdrive": 2859,
      "Ġ=": 2860,
      "hel": 2861,
      "Ġitems": 2862,
      "Ġdest": 2863,
      "ili": 2864,
      "ĠAlso": 2865,
      "Ġwar": 2866,
      "ĠHot": 2867,
      "Ġofficial": 2868,
      "ĠMod": 2869,
      "iction": 2870,
      "Ġmix": 2871,
      "ha": 2872,
      "Ġneg": 2873,
      "inary": 2874,
      "ĠWin": 2875,
      "Ġcool": 2876,
      "ĠBook": 2877,
      "isc": 2878,
      "ĠBusiness": 2879,
      "ĠOther": 2880,
      "ĠSund": 2881,
      "oke": 2882,
      "Ġcourt": 2883,
      "ruary": 2884,
      "Ġoption": 2885,
      "ĠRel": 2886,
      "Ġstra": 2887,
      "Ġdisplay": 2888,
      "ĠWhy": 2889,
      "Ġreceive": 2890,
      "Ġlatest": 2891,
      "Ġcode": 2892,
      "ĠWar": 2893,
      "Ġterms": 2894,
      "Ġmass": 2895,
      "Ġpolicy": 2896,
      "ipe": 2897,
      "ceed": 2898,
      "Ġtown": 2899,
      "ĠMich": 2900,
      "Ġprim": 2901,
      "Ġopportunity": 2902,
      "It": 2903,
      "ipping": 2904,
      "ĠChina": 2905,
      "Ġcause": 2906,
      "Ġproduction": 2907,
      "Ġcrus": 2908,
      "airs": 2909,
      "pose": 2910,
      "Ġsaw": 2911,
      "uses": 2912,
      "Ġpotential": 2913,
      "ening": 2914,
      "Ġprivate": 2915,
      "urer": 2916,
      "Ġregular": 2917,
      "Ġple": 2918,
      "ĠInc": 2919,
      "-year": 2920,
      "Ġhair": 2921,
      "Ġcollect": 2922,
      "ĠAc": 2923,
      "\"Ċ": 2924,
      "ĠTrans": 2925,
      "Ġcustomer": 2926,
      "Ġmoment": 2927,
      "ĠAir": 2928,
      "illing": 2929,
      "Ġdeg": 2930,
      "lim": 2931,
      "Ġeasily": 2932,
      "Ġep": 2933,
      "Ġhol": 2934,
      "ached": 2935,
      "ĠGoogle": 2936,
      "Ġblood": 2937,
      "ault": 2938,
      "Ġpers": 2939,
      "Ġincluded": 2940,
      "ĠFace": 2941,
      "pir": 2942,
      "amb": 2943,
      "ray": 2944,
      "Ġsale": 2945,
      "Ġideas": 2946,
      "Ġcas": 2947,
      "Ġplayers": 2948,
      "ĠNet": 2949,
      "Ġlooks": 2950,
      "Ġprior": 2951,
      "urb": 2952,
      "Ġsqu": 2953,
      "ecut": 2954,
      "oura": 2955,
      "adem": 2956,
      "OL": 2957,
      "Ġsn": 2958,
      "Ġadditional": 2959,
      "Ġexact": 2960,
      "ester": 2961,
      "ĠLoc": 2962,
      "Ġsense": 2963,
      "mas": 2964,
      "ĠMond": 2965,
      "Ġdeep": 2966,
      "ĠMet": 2967,
      "Ġri": 2968,
      "Ġrelated": 2969,
      "ĠIndia": 2970,
      "artment": 2971,
      "Ġgrowth": 2972,
      "ĠRec": 2973,
      "arter": 2974,
      "ĠAny": 2975,
      "off": 2976,
      "Ġthroughout": 2977,
      "Ġlate": 2978,
      "Ġensure": 2979,
      "-up": 2980,
      "Ġapply": 2981,
      "ĠFebruary": 2982,
      "Ġmedical": 2983,
      "'d": 2984,
      "ĠProf": 2985,
      "Ġcele": 2986,
      "Ġsource": 2987,
      "pri": 2988,
      "right": 2989,
      "Ġclos": 2990,
      "AD": 2991,
      "Ġfeed": 2992,
      "Ġmorning": 2993,
      "Ġcand": 2994,
      "Ġbal": 2995,
      "Ġdraw": 2996,
      "rup": 2997,
      "ĠRem": 2998,
      "Ġcontrib": 2999,
      "ĠTechn": 3000,
      "Ġplant": 3001,
      "ffe": 3002,
      "ica": 3003,
      "Ġrecently": 3004,
      "Ġpractice": 3005,
      "urg": 3006,
      "Ġlearning": 3007,
      "uel": 3008,
      "Ġquickly": 3009,
      "ournal": 3010,
      "ĠLa": 3011,
      "uth": 3012,
      "ellent": 3013,
      "eal": 3014,
      "Ġhands": 3015,
      "Ġwritten": 3016,
      "Ġcurrently": 3017,
      "Ġallows": 3018,
      "Ġobs": 3019,
      "ĠUK": 3020,
      "âĢĻd": 3021,
      "ĠSpec": 3022,
      "ĠAustral": 3023,
      "Ġlocated": 3024,
      "ube": 3025,
      "Ġmobile": 3026,
      "Ġord": 3027,
      "Ġwoman": 3028,
      "Ġnational": 3029,
      "Ġlives": 3030,
      "Ġboard": 3031,
      "Ġlower": 3032,
      "zz": 3033,
      "Ġsection": 3034,
      "Ġtarget": 3035,
      "Ġactivities": 3036,
      "Ġfavorite": 3037,
      "wood": 3038,
      "Ġskills": 3039,
      "ension": 3040,
      "Ġlost": 3041,
      "ĠSee": 3042,
      "avy": 3043,
      "bor": 3044,
      "ĠGreat": 3045,
      "ederal": 3046,
      "fficient": 3047,
      "Ġintrodu": 3048,
      "Ġstandard": 3049,
      "ĠMarket": 3050,
      "Ġhit": 3051,
      "ĠSan": 3052,
      "irit": 3053,
      "-C": 3054,
      "onse": 3055,
      "Ġround": 3056,
      "Ġplaying": 3057,
      "à¸": 3058,
      "Ġbuilt": 3059,
      "-to": 3060,
      "ondon": 3061,
      "Ġwrite": 3062,
      "Ġmother": 3063,
      "ĠInternational": 3064,
      "ĠPlay": 3065,
      "Ġmyself": 3066,
      "uit": 3067,
      "Ġattend": 3068,
      "Ġsun": 3069,
      "Ġthemselves": 3070,
      "Ġpark": 3071,
      "AP": 3072,
      "str": 3073,
      "Ġboy": 3074,
      "Ġspeed": 3075,
      "ological": 3076,
      "ĠTop": 3077,
      "Ġgets": 3078,
      "ĠBrit": 3079,
      "Ġchoice": 3080,
      "Ġitself": 3081,
      "Ġarri": 3082,
      "ĠCommun": 3083,
      "ĠSatur": 3084,
      "ĠPrice": 3085,
      "aly": 3086,
      "Ġgoes": 3087,
      "Ġsepar": 3088,
      "Ġimm": 3089,
      "Ġdecision": 3090,
      "Ġaffect": 3091,
      "ĠAfric": 3092,
      "Ġmatch": 3093,
      "roups": 3094,
      "Ġcases": 3095,
      "ĠDel": 3096,
      "light": 3097,
      "omen": 3098,
      "mm": 3099,
      "press": 3100,
      "aign": 3101,
      "ength": 3102,
      "ĠGood": 3103,
      "Ġmachine": 3104,
      "reng": 3105,
      "Ġcy": 3106,
      "Ġmodern": 3107,
      "Ġparts": 3108,
      "Ġteac": 3109,
      "Ġleaders": 3110,
      "ĠMonday": 3111,
      "otes": 3112,
      "Ġindic": 3113,
      "Ġinstead": 3114,
      "Ġmention": 3115,
      "ĠWeb": 3116,
      "Ġsummer": 3117,
      "ĠSam": 3118,
      "-based": 3119,
      "rec": 3120,
      "pped": 3121,
      "Ġviol": 3122,
      "ĠOF": 3123,
      "Ġtour": 3124,
      "amed": 3125,
      "rab": 3126,
      "asons": 3127,
      "ocr": 3128,
      "ivity": 3129,
      "ĠInter": 3130,
      "ara": 3131,
      "Ġroll": 3132,
      "mission": 3133,
      "Ġability": 3134,
      "Ġsett": 3135,
      "Ġformer": 3136,
      "mercial": 3137,
      "plement": 3138,
      "hood": 3139,
      "Ġconditions": 3140,
      "Ġbi": 3141,
      "ĠSunday": 3142,
      "Ġinternational": 3143,
      "rel": 3144,
      "Ġmovie": 3145,
      "Ġrights": 3146,
      "attle": 3147,
      "ĠThanks": 3148,
      "Ġpatients": 3149,
      "ague": 3150,
      "sc": 3151,
      "Ġbank": 3152,
      "Ġinsurance": 3153,
      "iable": 3154,
      "Ġrequest": 3155,
      "ĠService": 3156,
      "Ġaw": 3157,
      "ĠKing": 3158,
      "US": 3159,
      "Ġlocation": 3160,
      "where": 3161,
      "Ġvac": 3162,
      "ĠServices": 3163,
      "apan": 3164,
      "hern": 3165,
      "Ġtypes": 3166,
      "Ġimmed": 3167,
      "Ġlevels": 3168,
      "iation": 3169,
      "rown": 3170,
      "ĠGerm": 3171,
      "iles": 3172,
      "Ġhor": 3173,
      "Ġremember": 3174,
      "atives": 3175,
      "ĠCle": 3176,
      "Ġsaf": 3177,
      "ĠAng": 3178,
      "ĠLaw": 3179,
      "Ġpiece": 3180,
      "Ġanswer": 3181,
      "add": 3182,
      "Ġdrug": 3183,
      "Ġequipment": 3184,
      "ĠAssoci": 3185,
      "Ġnecessary": 3186,
      "gar": 3187,
      "ĠWhite": 3188,
      "Ġgrad": 3189,
      "Ġdoor": 3190,
      "ĠPhot": 3191,
      "Ġones": 3192,
      "Ġwrong": 3193,
      "orage": 3194,
      "Ġprograms": 3195,
      "ĠEven": 3196,
      "Ġmag": 3197,
      "ĠWork": 3198,
      "ĠDet": 3199,
      "ĠSystem": 3200,
      "key": 3201,
      "Ġstudent": 3202,
      "unk": 3203,
      "oul": 3204,
      "ĠSaturday": 3205,
      "ĠTy": 3206,
      "aves": 3207,
      "ĠRuss": 3208,
      "ĠSch": 3209,
      "ett": 3210,
      "Ġjud": 3211,
      "Ġdise": 3212,
      "Ġworked": 3213,
      "Ġrelease": 3214,
      "Ġmarketing": 3215,
      "ĠDepartment": 3216,
      "Ġgold": 3217,
      "mon": 3218,
      "Ġfresh": 3219,
      "Ġwood": 3220,
      "Ġvariety": 3221,
      "ĠST": 3222,
      "ĠWed": 3223,
      "Ġpred": 3224,
      "Ġplatform": 3225,
      "board": 3226,
      "Ġamazing": 3227,
      "Ġleading": 3228,
      "Ġdecided": 3229,
      "Ġslow": 3230,
      "ĠÂ£": 3231,
      "Ġdocument": 3232,
      "ĠOnline": 3233,
      "Ġmeeting": 3234,
      "Ġcareer": 3235,
      "ville": 3236,
      "ĠAbout": 3237,
      "à¤": 3238,
      "Ġdetail": 3239,
      "ĠPri": 3240,
      "Ġtal": 3241,
      "ishing": 3242,
      "ĠSen": 3243,
      "Ġpolitical": 3244,
      "Ġlab": 3245,
      "Ġdiv": 3246,
      "www": 3247,
      "cil": 3248,
      "Ġprojects": 3249,
      "erve": 3250,
      "itary": 3251,
      "Ġchance": 3252,
      "icense": 3253,
      "Ġlegal": 3254,
      "ENT": 3255,
      "edding": 3256,
      "Ġcountries": 3257,
      "ĠIns": 3258,
      "Ġbud": 3259,
      "ĠLondon": 3260,
      "unt": 3261,
      "Ġsurpr": 3262,
      "Ġsave": 3263,
      "haps": 3264,
      "Ġenter": 3265,
      "ashion": 3266,
      "Ġfight": 3267,
      "ĠHol": 3268,
      "Ġfix": 3269,
      "Ġglobal": 3270,
      "ĠView": 3271,
      "itation": 3272,
      "ĠTod": 3273,
      "ĠCalif": 3274,
      "Ġdress": 3275,
      "roid": 3276,
      "Ġrev": 3277,
      "Ġhuge": 3278,
      "zy": 3279,
      "vey": 3280,
      "ivery": 3281,
      "Ġgoal": 3282,
      "Ġeyes": 3283,
      "Ġcup": 3284,
      "arden": 3285,
      "Ġparents": 3286,
      "iding": 3287,
      "Ġwasn": 3288,
      "Ġsites": 3289,
      "Ġbecame": 3290,
      "Ġeffective": 3291,
      "Ġstock": 3292,
      "urt": 3293,
      "Ġpurchase": 3294,
      "Ġsolution": 3295,
      "Ġcollection": 3296,
      "ography": 3297,
      "Ġcross": 3298,
      "erous": 3299,
      "Ġgives": 3300,
      "ĠJe": 3301,
      "Ġinteresting": 3302,
      "Ġdigital": 3303,
      "Ġattempt": 3304,
      "igation": 3305,
      "Ġapproach": 3306,
      "error": 3307,
      "Ġcenter": 3308,
      "Ġtouch": 3309,
      "Ġattention": 3310,
      "Ġblock": 3311,
      "isher": 3312,
      "Ġsus": 3313,
      "ĠGo": 3314,
      "Ġinvolved": 3315,
      "ĠFacebook": 3316,
      "idered": 3317,
      "Ġsold": 3318,
      "ĠDate": 3319,
      "Ġhear": 3320,
      "Ġbenefits": 3321,
      "Ġcat": 3322,
      "orge": 3323,
      "Ġmultiple": 3324,
      "opping": 3325,
      "rences": 3326,
      "Ġconv": 3327,
      "itte": 3328,
      "Ġcosts": 3329,
      "oly": 3330,
      "Ġver": 3331,
      "Ġce": 3332,
      "rought": 3333,
      "Ġregist": 3334,
      "Ġnote": 3335,
      "âĢĿĊ": 3336,
      "ellow": 3337,
      "aste": 3338,
      "Ġtele": 3339,
      "Ġdark": 3340,
      "Ġsche": 3341,
      "Ġspeak": 3342,
      "Ġcompletely": 3343,
      "ornia": 3344,
      "Ġfair": 3345,
      "Ġstuff": 3346,
      "ĠCompany": 3347,
      "ĠCoun": 3348,
      "Ġdaily": 3349,
      "hold": 3350,
      "Ġfloor": 3351,
      "ĠSol": 3352,
      "-g": 3353,
      "Ġbegan": 3354,
      "Ġfine": 3355,
      "ĠMany": 3356,
      "ael": 3357,
      "Ġbus": 3358,
      "Ġdefe": 3359,
      "ĠProduct": 3360,
      "ancy": 3361,
      "Ġlanguage": 3362,
      "Ġcondition": 3363,
      "Ġarch": 3364,
      "overn": 3365,
      "Ġclients": 3366,
      "ĠAv": 3367,
      "Ġsaying": 3368,
      "Ġdating": 3369,
      "ĠII": 3370,
      "Ġtrust": 3371,
      "more": 3372,
      "Ġplans": 3373,
      "Ġphotos": 3374,
      "Ġthinking": 3375,
      "ĠDevelop": 3376,
      "Ġgroups": 3377,
      "ĠRet": 3378,
      "ĠIS": 3379,
      "band": 3380,
      "Ġgreen": 3381,
      "ĠStreet": 3382,
      "Ġtools": 3383,
      "ald": 3384,
      "Ġsafety": 3385,
      "Ġfiles": 3386,
      "rote": 3387,
      "Ġpath": 3388,
      "Ġmount": 3389,
      "Ġmaterials": 3390,
      "ĠDem": 3391,
      "iment": 3392,
      "Ġfelt": 3393,
      "acing": 3394,
      "partment": 3395,
      "ĠPort": 3396,
      "ĠDownload": 3397,
      "enty": 3398,
      "chan": 3399,
      "Ġpull": 3400,
      "ida": 3401,
      "elling": 3402,
      "Ġdirectly": 3403,
      "Ġemer": 3404,
      "king": 3405,
      "itely": 3406,
      "Ġgave": 3407,
      "ĠGroup": 3408,
      "EO": 3409,
      "Ġimplement": 3410,
      "izes": 3411,
      "ĠMac": 3412,
      "Ġlif": 3413,
      "elcome": 3414,
      "Ġstreng": 3415,
      "rows": 3416,
      "wise": 3417,
      "ĠUse": 3418,
      "Ġadminist": 3419,
      "Ġsend": 3420,
      "duc": 3421,
      "Ġappl": 3422,
      ".C": 3423,
      "ĠDavid": 3424,
      "ĠJapan": 3425,
      "Ġproviding": 3426,
      "ĠPR": 3427,
      "ĠSince": 3428,
      "ores": 3429,
      "ĠLike": 3430,
      "Ġprevent": 3431,
      "aries": 3432,
      "ĠTues": 3433,
      "ports": 3434,
      "ĠGold": 3435,
      "Ġconduct": 3436,
      "ĠThurs": 3437,
      "Ġpropos": 3438,
      "rench": 3439,
      "Ġsubst": 3440,
      "Ġmark": 3441,
      "Ġcopy": 3442,
      "Ġanalysis": 3443,
      "ĠProgram": 3444,
      "itution": 3445,
      "ford": 3446,
      "ception": 3447,
      "urning": 3448,
      "Ġhighly": 3449,
      "Ġsubs": 3450,
      "isions": 3451,
      "Ġdead": 3452,
      "Ġheard": 3453,
      "St": 3454,
      "icks": 3455,
      "Ġresources": 3456,
      "IP": 3457,
      "Ġresponse": 3458,
      "Ġcampaign": 3459,
      "ares": 3460,
      "bit": 3461,
      "Ġdistrib": 3462,
      "Ġgiving": 3463,
      "Ġcorrect": 3464,
      "Ġaverage": 3465,
      "Ġextreme": 3466,
      "Ġreported": 3467,
      "UR": 3468,
      "Ġrout": 3469,
      "ĠYear": 3470,
      "Ġplayer": 3471,
      "Ġimages": 3472,
      "itute": 3473,
      "Ġinterview": 3474,
      "isf": 3475,
      "ĠSl": 3476,
      "Ġaltern": 3477,
      "ĠAnt": 3478,
      "sych": 3479,
      "ĠPhil": 3480,
      "Ġpolice": 3481,
      "Ġgas": 3482,
      "Ġhour": 3483,
      "ties": 3484,
      "enge": 3485,
      "Ġmid": 3486,
      "ĠCalifornia": 3487,
      "ĠInternet": 3488,
      "Ġobt": 3489,
      "ari": 3490,
      "ivil": 3491,
      "vant": 3492,
      "kend": 3493,
      "Ġqual": 3494,
      "Ġvict": 3495,
      "ĠÂ·": 3496,
      "Ġshown": 3497,
      "imately": 3498,
      "ĠCourt": 3499,
      "Ġconsidered": 3500,
      "Ġsometimes": 3501,
      "ĠTime": 3502,
      "Ġhimself": 3503,
      "nesday": 3504,
      "Ġeffects": 3505,
      "ĠChristmas": 3506,
      "Ġson": 3507,
      "ĠDist": 3508,
      "Ġsam": 3509,
      "Ġhelps": 3510,
      "blog": 3511,
      "Ġpublished": 3512,
      "ocol": 3513,
      "OW": 3514,
      "Ġconvers": 3515,
      "ĠPC": 3516,
      "Ġdream": 3517,
      "Ġpressure": 3518,
      "ĠJack": 3519,
      "ospital": 3520,
      "Ġpositive": 3521,
      "ris": 3522,
      "Ġexpected": 3523,
      "yond": 3524,
      "ĠTuesday": 3525,
      "dom": 3526,
      "ĠLear": 3527,
      "ĠThursday": 3528,
      "Ġsituation": 3529,
      "Ġearn": 3530,
      "Ġlimited": 3531,
      "Ġmessage": 3532,
      "Ġcelebr": 3533,
      "Ġencoura": 3534,
      "ĠClass": 3535,
      "Ġexcellent": 3536,
      "Ġhotel": 3537,
      "Ġdire": 3538,
      "cul": 3539,
      "Ġinstru": 3540,
      "mitted": 3541,
      "aches": 3542,
      "Ġplayed": 3543,
      "asy": 3544,
      "-A": 3545,
      "ĠPaul": 3546,
      "ĠBack": 3547,
      "Ġstarting": 3548,
      "bum": 3549,
      "Ġbath": 3550,
      "-M": 3551,
      "ĠGreen": 3552,
      "ruit": 3553,
      "raw": 3554,
      "iant": 3555,
      "Ġload": 3556,
      "ooth": 3557,
      "ibly": 3558,
      "Ġnature": 3559,
      "Ġreleased": 3560,
      "OV": 3561,
      "ĠSur": 3562,
      "Ġbaby": 3563,
      "fl": 3564,
      "Ġprices": 3565,
      "Ġrestaur": 3566,
      "ĠYes": 3567,
      "Ġdry": 3568,
      "Ġprem": 3569,
      "Ġinflu": 3570,
      "rial": 3571,
      "Ġapplications": 3572,
      "pa": 3573,
      "Ġwarm": 3574,
      "Ġpicture": 3575,
      "ocks": 3576,
      "Ġoffe": 3577,
      "Ġband": 3578,
      "ĠPal": 3579,
      "EM": 3580,
      "anch": 3581,
      "ĠWednesday": 3582,
      "place": 3583,
      "Ġcapt": 3584,
      "Ġsleep": 3585,
      "ĠCollege": 3586,
      "ĠLove": 3587,
      "olf": 3588,
      "Ġfully": 3589,
      "Ġconsist": 3590,
      "Ġunit": 3591,
      "ronic": 3592,
      "het": 3593,
      "ĠOnce": 3594,
      "Ġpattern": 3595,
      "ibrary": 3596,
      "Ġeye": 3597,
      "Ġbroad": 3598,
      "ĠJes": 3599,
      "Ġbirth": 3600,
      "hington": 3601,
      "ĠCheck": 3602,
      "Ġcomplex": 3603,
      "arant": 3604,
      "Ġdecl": 3605,
      "Ġphysical": 3606,
      "Ġcarry": 3607,
      "IV": 3608,
      "cause": 3609,
      "Ġstates": 3610,
      "pite": 3611,
      "Ġreve": 3612,
      "Ġknew": 3613,
      "Ġstru": 3614,
      "ened": 3615,
      "Ġviews": 3616,
      "Wh": 3617,
      "ĠInformation": 3618,
      "Ġprogress": 3619,
      "ications": 3620,
      "ĠDec": 3621,
      "uate": 3622,
      "Ġten": 3623,
      "olute": 3624,
      "ĠGeneral": 3625,
      "ideos": 3626,
      "ĠÂ»": 3627,
      "etic": 3628,
      "Ġpurpose": 3629,
      "ĠFind": 3630,
      "Ġchalleng": 3631,
      "ĠEast": 3632,
      "ĠMor": 3633,
      "pper": 3634,
      "Ġtemper": 3635,
      "Ġfather": 3636,
      "Ġorganization": 3637,
      "Ġturned": 3638,
      "ĠMake": 3639,
      "vest": 3640,
      "ĠEduc": 3641,
      "pm": 3642,
      "ĠOh": 3643,
      "Ġkitchen": 3644,
      "Ġreviews": 3645,
      "Ġpresident": 3646,
      "ĠFre": 3647,
      "Ġrent": 3648,
      "Ġtowards": 3649,
      "Ġrock": 3650,
      "pre": 3651,
      "Ġheat": 3652,
      "ĠBre": 3653,
      "sec": 3654,
      "arily": 3655,
      "aughter": 3656,
      "Ġavoid": 3657,
      "ĠTO": 3658,
      "Ġfrequ": 3659,
      "Ġtried": 3660,
      "ĠSum": 3661,
      "Ġsuit": 3662,
      "rast": 3663,
      "ĠIndian": 3664,
      "sequ": 3665,
      "Ġult": 3666,
      "Ġitem": 3667,
      ".g": 3668,
      "Ġled": 3669,
      "Ġprevious": 3670,
      "Ġmax": 3671,
      "ĠClick": 3672,
      "Ġbrought": 3673,
      "ĠOpen": 3674,
      "ĠGovern": 3675,
      "ĠLast": 3676,
      "Ġconcept": 3677,
      "ĠBel": 3678,
      "Ġstories": 3679,
      "Ġreach": 3680,
      "Ġinternet": 3681,
      "bon": 3682,
      "Ġenh": 3683,
      "Ġactivity": 3684,
      "Ġfinally": 3685,
      "ying": 3686,
      "aith": 3687,
      "ĠMicro": 3688,
      "Ġadvant": 3689,
      "cript": 3690,
      "Ġpow": 3691,
      "amic": 3692,
      "Ġeat": 3693,
      "BC": 3694,
      "ĠJo": 3695,
      "Ġwish": 3696,
      "xic": 3697,
      "ĠHel": 3698,
      "Ġdifference": 3699,
      "Ġexerc": 3700,
      "ĠWhe": 3701,
      "ĠBig": 3702,
      "Ġwait": 3703,
      "Ġadult": 3704,
      "Ġeconomic": 3705,
      "ĠToday": 3706,
      "aught": 3707,
      "Ġlooked": 3708,
      "Ġrequirements": 3709,
      "Ġmill": 3710,
      "Ġprefer": 3711,
      "Ġprec": 3712,
      "ĠOffice": 3713,
      "Ġdeveloped": 3714,
      "uted": 3715,
      "ĠIr": 3716,
      "Ġinterested": 3717,
      "Ġregion": 3718,
      "like": 3719,
      "Ġguide": 3720,
      "change": 3721,
      "Ph": 3722,
      "Ġtrip": 3723,
      "Ġregul": 3724,
      "Ġprot": 3725,
      "ĠEv": 3726,
      "Ġfirm": 3727,
      "Ġplaces": 3728,
      "Ġmaybe": 3729,
      "Ġuses": 3730,
      "Ġevidence": 3731,
      "ĠResearch": 3732,
      "Ġbehav": 3733,
      "Ġdro": 3734,
      "Ġcert": 3735,
      "ittee": 3736,
      "Ġlack": 3737,
      "lying": 3738,
      "ales": 3739,
      "Ġpen": 3740,
      "asc": 3741,
      "PS": 3742,
      "Ġcollege": 3743,
      "Ġcompon": 3744,
      "ĠCare": 3745,
      "ĠAnn": 3746,
      "ĠSpr": 3747,
      "ilies": 3748,
      "Ġglass": 3749,
      "Ġded": 3750,
      "ĠCustom": 3751,
      "Ġphoto": 3752,
      "estern": 3753,
      "idents": 3754,
      "Ġwants": 3755,
      "omb": 3756,
      "ĠLife": 3757,
      "Ġpaid": 3758,
      "Ġfeeling": 3759,
      "Ġhous": 3760,
      "ĠAccording": 3761,
      "ĠSize": 3762,
      "Ġachieve": 3763,
      "Ġneigh": 3764,
      "Ġplanning": 3765,
      "ĠCanada": 3766,
      "Ġaware": 3767,
      "Ġexactly": 3768,
      "Ġfeet": 3769,
      "Ġsurface": 3770,
      "Ġfat": 3771,
      "Ġexpert": 3772,
      "Ġacqu": 3773,
      "ky": 3774,
      "Ġsuccessful": 3775,
      "Ġimag": 3776,
      "ĠThank": 3777,
      "lement": 3778,
      "ĠPower": 3779,
      "ĠPublic": 3780,
      "ãĥ": 3781,
      "ĠManagement": 3782,
      "Ġsort": 3783,
      "ĠPeople": 3784,
      "erved": 3785,
      "Ġgrowing": 3786,
      "ĠWashington": 3787,
      "Ġcash": 3788,
      "oms": 3789,
      "IM": 3790,
      "Ġwrote": 3791,
      "ils": 3792,
      "Ġtraditional": 3793,
      "Ġclub": 3794,
      "Ġspend": 3795,
      "ĠMem": 3796,
      "Ġsolutions": 3797,
      "ĠAND": 3798,
      "ĠVis": 3799,
      "ipped": 3800,
      "Ġwife": 3801,
      "Ġden": 3802,
      "inger": 3803,
      "ategy": 3804,
      "umn": 3805,
      "Ġindividuals": 3806,
      "Ġcharge": 3807,
      "Ġappropri": 3808,
      "Ġcateg": 3809,
      "Ġstage": 3810,
      "omew": 3811,
      "ĠPlan": 3812,
      "--------": 3813,
      "ĠWho": 3814,
      "ĠLook": 3815,
      "Ġindepend": 3816,
      "ustr": 3817,
      "apter": 3818,
      "Ġimpress": 3819,
      "Ġoccur": 3820,
      "Ġpartners": 3821,
      "ĠDan": 3822,
      "Ġmoving": 3823,
      "Ġtitle": 3824,
      "ĠRE": 3825,
      "Ġextend": 3826,
      "Ġemployees": 3827,
      "ences": 3828,
      "iately": 3829,
      "istics": 3830,
      "istry": 3831,
      "antly": 3832,
      "Ġpages": 3833,
      "Ġfem": 3834,
      "Ġhistor": 3835,
      "Ġstar": 3836,
      "Ġdevices": 3837,
      "Ġspent": 3838,
      "Ġfab": 3839,
      "Ġblue": 3840,
      "Ġvehicle": 3841,
      "Ġopin": 3842,
      "Ġgar": 3843,
      "Ġanaly": 3844,
      "Ġdefinitely": 3845,
      "Ġstorage": 3846,
      "Ġnation": 3847,
      "Ġcreating": 3848,
      "Ġdoll": 3849,
      "Ġdemand": 3850,
      "ĠWilliam": 3851,
      "order": 3852,
      "Ġeffort": 3853,
      ".)": 3854,
      "Ġaccom": 3855,
      "iring": 3856,
      "Ġbeginning": 3857,
      "coming": 3858,
      "Ġinnov": 3859,
      "iler": 3860,
      "itect": 3861,
      "Ġconstruction": 3862,
      "Ġrespond": 3863,
      "Ġfarm": 3864,
      "Ġadjust": 3865,
      "Ġnumbers": 3866,
      "Ġthous": 3867,
      "ĠAlthough": 3868,
      "porate": 3869,
      "Ġhealthy": 3870,
      "Ġ.Ċ": 3871,
      "Ġdeliver": 3872,
      "Ġcontain": 3873,
      "ament": 3874,
      "venue": 3875,
      "Ġcommercial": 3876,
      "body": 3877,
      "Ġstraight": 3878,
      "Ġnormal": 3879,
      "hest": 3880,
      "Ġhop": 3881,
      "Ġrelig": 3882,
      "Ġthreat": 3883,
      "Ġtransfer": 3884,
      "inated": 3885,
      "gen": 3886,
      "rael": 3887,
      "ĠCur": 3888,
      "ĠCam": 3889,
      "Ġculture": 3890,
      "ĠIT": 3891,
      "soft": 3892,
      "Ġmis": 3893,
      "Ġpictures": 3894,
      "Ġreports": 3895,
      "orks": 3896,
      "Ġcertainly": 3897,
      "ĠTex": 3898,
      "ĠEach": 3899,
      "Ġconsult": 3900,
      "Ġshoot": 3901,
      "ĠJames": 3902,
      "Ġadvert": 3903,
      "ĠTwo": 3904,
      "Ġjobs": 3905,
      "Ġtrade": 3906,
      "Ġcandid": 3907,
      "Ġdemon": 3908,
      "ĠRepublic": 3909,
      "ously": 3910,
      "Ġweekend": 3911,
      "CT": 3912,
      "que": 3913,
      "undred": 3914,
      "Ġassociated": 3915,
      "Ġpet": 3916,
      "rag": 3917,
      "ĠUnder": 3918,
      "Ġalone": 3919,
      "ĠSuper": 3920,
      "Ġstress": 3921,
      "ĠWater": 3922,
      "ĠFam": 3923,
      "Ġprinc": 3924,
      "Ġtalking": 3925,
      "field": 3926,
      "Ġbudget": 3927,
      "Ġorganiz": 3928,
      "Ġsmart": 3929,
      "Ġdisease": 3930,
      "Ġactive": 3931,
      "Ġrace": 3932,
      "new": 3933,
      "Ġmeasure": 3934,
      "Ġpaint": 3935,
      "Ġclient": 3936,
      "Ġtick": 3937,
      "atever": 3938,
      "eds": 3939,
      "ij": 3940,
      "Ġinform": 3941,
      "Ġunderstanding": 3942,
      "Ġassess": 3943,
      "ecutive": 3944,
      "ĠRom": 3945,
      "ĠMichael": 3946,
      "nown": 3947,
      "ĠHall": 3948,
      "ĠEuropean": 3949,
      ".org": 3950,
      "Ġcry": 3951,
      "ned": 3952,
      "tion": 3953,
      "ãĤ": 3954,
      "Ġspirit": 3955,
      "ancing": 3956,
      "Ġcapital": 3957,
      "ĠSil": 3958,
      "Ġforce": 3959,
      "Ġmeaning": 3960,
      "Ġpromot": 3961,
      "ĠList": 3962,
      "iny": 3963,
      "Read": 3964,
      "Ġannounced": 3965,
      "Ġwonderful": 3966,
      "ĠSa": 3967,
      "ĠRich": 3968,
      "Ġcold": 3969,
      "ĠCong": 3970,
      "lin": 3971,
      "Ġposted": 3972,
      "ĠJesus": 3973,
      "Ġnut": 3974,
      "alt": 3975,
      "ĠBecause": 3976,
      "ĠSu": 3977,
      "ĠFound": 3978,
      "Ġrules": 3979,
      "phone": 3980,
      "ĠHave": 3981,
      "Ġpowerful": 3982,
      "Ġdouble": 3983,
      "atab": 3984,
      "mat": 3985,
      "-P": 3986,
      "Ġlines": 3987,
      "Ġliter": 3988,
      "ĠBoard": 3989,
      "ounds": 3990,
      "Ġing": 3991,
      "Ġincreased": 3992,
      "aling": 3993,
      "ĠForm": 3994,
      "Ġaim": 3995,
      "icated": 3996,
      "ĠSpe": 3997,
      "Ġbasic": 3998,
      "inner": 3999,
      "Rep": 4000,
      "ago": 4001,
      "Ġdrink": 4002,
      "Ġproced": 4003,
      "ĠSun": 4004,
      "-time": 4005,
      "Ġnearly": 4006,
      "Ġstrateg": 4007,
      "Ġimmediately": 4008,
      "ĠFull": 4009,
      "imal": 4010,
      "ĠMag": 4011,
      "acity": 4012,
      "Ġdelivery": 4013,
      "Ġchanged": 4014,
      "Ġaspect": 4015,
      "ĠHist": 4016,
      "Ġble": 4017,
      "Ġjoin": 4018,
      "Ġstatement": 4019,
      "Ġmiddle": 4020,
      "Ġrates": 4021,
      "arc": 4022,
      "Ġmiles": 4023,
      "Ġgirls": 4024,
      "Ġalbum": 4025,
      "Ġlength": 4026,
      "AY": 4027,
      "ĠFil": 4028,
      "mp": 4029,
      "ken": 4030,
      "ĠSoft": 4031,
      "sp": 4032,
      "Ġaward": 4033,
      "Ġintegr": 4034,
      "set": 4035,
      "ĠArch": 4036,
      "-F": 4037,
      "ĠFlor": 4038,
      "Ġgrand": 4039,
      "Ġbusinesses": 4040,
      "Ġparticularly": 4041,
      "ĠAdv": 4042,
      "Ġbeyond": 4043,
      "ĠStr": 4044,
      "iture": 4045,
      "nded": 4046,
      "Ġemot": 4047,
      "ĠWord": 4048,
      "Ġdoub": 4049,
      "ĠChild": 4050,
      "Ġbasis": 4051,
      "Ġsatisf": 4052,
      "Ġshot": 4053,
      "Ġguy": 4054,
      "Ġsupply": 4055,
      "odes": 4056,
      "Ġalthough": 4057,
      "orrow": 4058,
      "Ġallowed": 4059,
      "Ġdegree": 4060,
      "Ġter": 4061,
      "Ġwhose": 4062,
      "UT": 4063,
      "ĠFore": 4064,
      "ĠBank": 4065,
      "ĠJob": 4066,
      "see": 4067,
      "ĠAP": 4068,
      "ĠFrench": 4069,
      "Ġhus": 4070,
      "Ġstructure": 4071,
      "Ġschools": 4072,
      "ĠProject": 4073,
      "oves": 4074,
      "ady": 4075,
      "Ġinvestment": 4076,
      "-r": 4077,
      "cel": 4078,
      "ĠHy": 4079,
      "ĠContin": 4080,
      "olic": 4081,
      "):": 4082,
      "Ġbottom": 4083,
      "Ġearlier": 4084,
      "lished": 4085,
      "Ġabsolute": 4086,
      "Ġoverall": 4087,
      "ĠShow": 4088,
      "ĠRoad": 4089,
      "OD": 4090,
      "Ġserious": 4091,
      "Ġloved": 4092,
      "Ġadvice": 4093,
      "rapy": 4094,
      "ĠSpecial": 4095,
      "rem": 4096,
      "Ġclot": 4097,
      "Ġfear": 4098,
      "Ġsweet": 4099,
      "Ġvoice": 4100,
      "Ġreasons": 4101,
      "Ġoffered": 4102,
      "Ġnotice": 4103,
      "erg": 4104,
      "rey": 4105,
      "Ġscience": 4106,
      "CH": 4107,
      "Ġbenefit": 4108,
      "ĠIsrael": 4109,
      "Ġreduce": 4110,
      "Ġincreasing": 4111,
      "ĠSing": 4112,
      "Ġspot": 4113,
      "Ġdescribed": 4114,
      "annel": 4115,
      "-B": 4116,
      "elete": 4117,
      "ams": 4118,
      "ĠAtt": 4119,
      "ĠObama": 4120,
      "Ġbur": 4121,
      "ĠBritish": 4122,
      "Ġmilitary": 4123,
      "Ġopportunities": 4124,
      "iger": 4125,
      "Ġchem": 4126,
      "ĠElect": 4127,
      "leg": 4128,
      "Ġsen": 4129,
      "Ġplus": 4130,
      "Ġshop": 4131,
      "force": 4132,
      "ĠJew": 4133,
      "ĠChristian": 4134,
      "Ġfans": 4135,
      "aled": 4136,
      "-e": 4137,
      "Ġaccur": 4138,
      "Ġteams": 4139,
      "ston": 4140,
      "Ġsurv": 4141,
      "icip": 4142,
      "Ġguys": 4143,
      "Ġessential": 4144,
      "Ġmemory": 4145,
      "ĠComments": 4146,
      "Ġlargest": 4147,
      "ublisher": 4148,
      "ĠApple": 4149,
      "Ġfamilies": 4150,
      "rief": 4151,
      "\".": 4152,
      "Ġdamage": 4153,
      "itude": 4154,
      "Ġarr": 4155,
      "Ġapprec": 4156,
      "ĠEngine": 4157,
      "ĠCap": 4158,
      "azon": 4159,
      "itiz": 4160,
      "eg": 4161,
      "/or": 4162,
      "Ġcouldn": 4163,
      "Ġmechan": 4164,
      "ĠPet": 4165,
      "Ġowners": 4166,
      "ĠRob": 4167,
      "ĠUSA": 4168,
      "Ġgoals": 4169,
      "DF": 4170,
      "\",": 4171,
      "Ġsteps": 4172,
      "This": 4173,
      "ero": 4174,
      "ĠCouncil": 4175,
      "oos": 4176,
      "erry": 4177,
      "iling": 4178,
      "ech": 4179,
      "Ġelectric": 4180,
      "Ġreflect": 4181,
      "Ġresponsible": 4182,
      "ĠTwitter": 4183,
      "Ġsetting": 4184,
      "Delete": 4185,
      "Ġprotection": 4186,
      "ĠTexas": 4187,
      "Ġbackground": 4188,
      "Ġhappened": 4189,
      "Ġreplace": 4190,
      "useum": 4191,
      "ĠMark": 4192,
      "Ġserve": 4193,
      "hens": 4194,
      "ĠEducation": 4195,
      "za": 4196,
      "atively": 4197,
      "arge": 4198,
      "Ġlots": 4199,
      "ĠAustralia": 4200,
      "gn": 4201,
      "Ġfurn": 4202,
      "oving": 4203,
      "ĠCall": 4204,
      "ĠChurch": 4205,
      "ĠLord": 4206,
      "orial": 4207,
      "Ġvirt": 4208,
      "Ġeasier": 4209,
      "osing": 4210,
      "Ġcancer": 4211,
      "Ġtruly": 4212,
      "ĠRober": 4213,
      ".A": 4214,
      "Ġhundred": 4215,
      "Ġcamera": 4216,
      "anging": 4217,
      "ĠHum": 4218,
      "inese": 4219,
      "vision": 4220,
      "Ġgift": 4221,
      "ette": 4222,
      "Ġtransport": 4223,
      "sey": 4224,
      "ĠPress": 4225,
      "CC": 4226,
      "ovel": 4227,
      "Ġpoor": 4228,
      "mar": 4229,
      "Ġsports": 4230,
      "ĠData": 4231,
      "Ġbillion": 4232,
      "Ġlaws": 4233,
      "wide": 4234,
      "ĠDirector": 4235,
      "Ġuseful": 4236,
      "Â®": 4237,
      "Ġoffering": 4238,
      "ĠKey": 4239,
      "isl": 4240,
      "Ġ;": 4241,
      "Ġgreater": 4242,
      "Ġtrou": 4243,
      "Ġstudies": 4244,
      "Ġspread": 4245,
      "ae": 4246,
      "house": 4247,
      "ios": 4248,
      "Ġgra": 4249,
      "Ġgraph": 4250,
      "Ġscient": 4251,
      "ĠStar": 4252,
      "Ġmoved": 4253,
      "Ġwear": 4254,
      "Ġgone": 4255,
      "Ġsup": 4256,
      "Ġcast": 4257,
      "Ġpatient": 4258,
      "ifying": 4259,
      "ĠFood": 4260,
      "OP": 4261,
      "ĠDisc": 4262,
      "Ġbag": 4263,
      "ĠVideo": 4264,
      "Ġremain": 4265,
      "ĠContact": 4266,
      "Ġdecor": 4267,
      "inate": 4268,
      "Ġclin": 4269,
      "ĠMart": 4270,
      "ros": 4271,
      "Ġmanufacturer": 4272,
      "Ġfinish": 4273,
      "porary": 4274,
      "ror": 4275,
      "Ġconnection": 4276,
      "Ġfant": 4277,
      "Ġwild": 4278,
      "ĠAssociation": 4279,
      "Ġincome": 4280,
      "Ġletter": 4281,
      "box": 4282,
      "esome": 4283,
      "Ġquarter": 4284,
      "Ġregarding": 4285,
      "Ġmicro": 4286,
      "ĠDri": 4287,
      "Ġcru": 4288,
      "aven": 4289,
      "-old": 4290,
      "oming": 4291,
      "Ġstrength": 4292,
      "Ġpeace": 4293,
      "ĠVol": 4294,
      "Ġattract": 4295,
      "Ġbrother": 4296,
      "Ġchurch": 4297,
      "time": 4298,
      "Ġproduce": 4299,
      "ologies": 4300,
      "ĠWhere": 4301,
      "ĠReport": 4302,
      "ĠBet": 4303,
      "ula": 4304,
      "Ġgenerally": 4305,
      "Ġcharacters": 4306,
      "ĠDuring": 4307,
      "aming": 4308,
      "Ġstrugg": 4309,
      "ĠRock": 4310,
      "Ġdang": 4311,
      "Ġvideos": 4312,
      "Ġthanks": 4313,
      "Ġeval": 4314,
      "imb": 4315,
      "net": 4316,
      "ĠAngel": 4317,
      "Ġresist": 4318,
      "ĠReal": 4319,
      "akers": 4320,
      "ĠExper": 4321,
      "Ġbul": 4322,
      "Ġir": 4323,
      "Ġsurround": 4324,
      "Ġcomfortable": 4325,
      "Ġmethods": 4326,
      "Ġslight": 4327,
      "Ġnamed": 4328,
      "ĠIsland": 4329,
      "Ġaren": 4330,
      "Ġborn": 4331,
      "ĠPay": 4332,
      "ĠLab": 4333,
      "icon": 4334,
      "ĠSet": 4335,
      "Ġbatter": 4336,
      "Ġtruth": 4337,
      "Ġappropriate": 4338,
      "Ġbutton": 4339,
      "Ġopening": 4340,
      "apers": 4341,
      "Ġlinks": 4342,
      "Ġwindow": 4343,
      "text": 4344,
      "down": 4345,
      "Ġge": 4346,
      "Ġsand": 4347,
      "IR": 4348,
      "Ġafford": 4349,
      "ĠMil": 4350,
      "icine": 4351,
      "Ġstream": 4352,
      "Ġprimary": 4353,
      "Ġpool": 4354,
      "ĠTom": 4355,
      "dule": 4356,
      "ĠLight": 4357,
      "Ġchallenge": 4358,
      "Ġdiet": 4359,
      "ĠMal": 4360,
      "-T": 4361,
      "Ġactual": 4362,
      "Ġwww": 4363,
      "ym": 4364,
      "illa": 4365,
      "Ġexisting": 4366,
      "Ġdep": 4367,
      "Ġhusband": 4368,
      "ĠAnother": 4369,
      "ĠWomen": 4370,
      "Ġeight": 4371,
      "Ġfederal": 4372,
      "Ġoccas": 4373,
      "Ġthank": 4374,
      "Ġperhaps": 4375,
      "Ġcompared": 4376,
      "Ġseven": 4377,
      "ĠStep": 4378,
      "ĠMusic": 4379,
      "Ġcontroll": 4380,
      "ĠBlue": 4381,
      "Ġweather": 4382,
      "Ġstatus": 4383,
      "Ġton": 4384,
      "iced": 4385,
      "Ġanti": 4386,
      "Ġfashion": 4387,
      "Ġloan": 4388,
      "Ġtips": 4389,
      "ĠMary": 4390,
      "Ġguarant": 4391,
      "ĠWood": 4392,
      "owl": 4393,
      "Ġcompl": 4394,
      "ellig": 4395,
      "Ġcards": 4396,
      "Ġ[âĢ¦": 4397,
      "ado": 4398,
      "ĠSocial": 4399,
      "ipl": 4400,
      "ĠColor": 4401,
      "ĠMiss": 4402,
      "Ġstrategy": 4403,
      "Ġcontinu": 4404,
      "pping": 4405,
      "Ġahead": 4406,
      "Ġnames": 4407,
      "Ġmodels": 4408,
      "ĠCamp": 4409,
      "iques": 4410,
      "ĠMot": 4411,
      "Ġdirector": 4412,
      "Ġpieces": 4413,
      "ĠBra": 4414,
      "Ġobv": 4415,
      "itar": 4416,
      "ef": 4417,
      "Ġextremely": 4418,
      "ript": 4419,
      "Ġrefer": 4420,
      "Ġcells": 4421,
      "Ġwat": 4422,
      "ĠEst": 4423,
      "Ġcommunication": 4424,
      "He": 4425,
      "ka": 4426,
      "AG": 4427,
      "Ġtrain": 4428,
      "atically": 4429,
      "ĠAS": 4430,
      "oices": 4431,
      "More": 4432,
      "ourney": 4433,
      "Ġwedding": 4434,
      "Ġfan": 4435,
      "ading": 4436,
      "ĠThom": 4437,
      "Ġbill": 4438,
      "Ġfollowed": 4439,
      "Ġmovement": 4440,
      "You": 4441,
      "udd": 4442,
      "men": 4443,
      "Ġhaven": 4444,
      "gal": 4445,
      "hips": 4446,
      "Ġsteel": 4447,
      "ĠFire": 4448,
      "Ġcrusher": 4449,
      "-D": 4450,
      "ĠClub": 4451,
      "ffee": 4452,
      "ĠTake": 4453,
      "ker": 4454,
      "ĠDevelopment": 4455,
      "Ġheavy": 4456,
      "Ġselection": 4457,
      "osh": 4458,
      "Ġhom": 4459,
      "Ġfigure": 4460,
      "riage": 4461,
      "Ġsociety": 4462,
      "Ġfaith": 4463,
      "ĠBen": 4464,
      "Ġreblog": 4465,
      "Ġpartner": 4466,
      "osure": 4467,
      "ona": 4468,
      "ĠLou": 4469,
      "Ġpopulation": 4470,
      "unction": 4471,
      "ĠMill": 4472,
      "Ġpayment": 4473,
      "Ġannual": 4474,
      "ĠAL": 4475,
      "Ġmer": 4476,
      "Ġvot": 4477,
      "door": 4478,
      "uration": 4479,
      "Ġexpand": 4480,
      "Reply": 4481,
      "Ġserver": 4482,
      "Ġnovel": 4483,
      "Ġentertain": 4484,
      "inding": 4485,
      "Ġang": 4486,
      "using": 4487,
      "ĠAndroid": 4488,
      "oop": 4489,
      "Ġreblogged": 4490,
      "Ġappoint": 4491,
      "Ġguess": 4492,
      "ection": 4493,
      "ĠBuy": 4494,
      "Ġestablished": 4495,
      "Ġelements": 4496,
      "Ġdirection": 4497,
      "Ġmaster": 4498,
      "Ġapprox": 4499,
      "Ġhelped": 4500,
      "cape": 4501,
      "opped": 4502,
      "pond": 4503,
      "Ġbreat": 4504,
      "ĠBuild": 4505,
      "ĠMach": 4506,
      "Ġstation": 4507,
      "ustain": 4508,
      "Ġdriving": 4509,
      "ĠStand": 4510,
      "encies": 4511,
      "ads": 4512,
      "TS": 4513,
      "Ġadop": 4514,
      "Ġmonitor": 4515,
      "Ġtim": 4516,
      "umber": 4517,
      "rian": 4518,
      "Ġgun": 4519,
      "term": 4520,
      "ĠBo": 4521,
      "icken": 4522,
      "Ġexperienced": 4523,
      "ĠEnter": 4524,
      "Ġcentury": 4525,
      "ayer": 4526,
      ".)Ċ": 4527,
      "ĠChinese": 4528,
      "amm": 4529,
      "oles": 4530,
      "Ġtherefore": 4531,
      "Ġlarger": 4532,
      "Ġsolid": 4533,
      "Ġseeing": 4534,
      "Ġowner": 4535,
      "ĠCD": 4536,
      "Ġkept": 4537,
      "Ġrequires": 4538,
      "ĠLong": 4539,
      "Ġbrain": 4540,
      "Ġonto": 4541,
      "abin": 4542,
      "Ġdrop": 4543,
      "EW": 4544,
      "atabase": 4545,
      "iverse": 4546,
      "Ġunf": 4547,
      "Ġeconomy": 4548,
      "Ġstick": 4549,
      "anta": 4550,
      "Ġfinished": 4551,
      "oyal": 4552,
      "itors": 4553,
      "pective": 4554,
      "Ġflu": 4555,
      "ses": 4556,
      "Ġlikes": 4557,
      "Ġbeg": 4558,
      "ATION": 4559,
      "iers": 4560,
      "Ġupdate": 4561,
      "Ġmetal": 4562,
      "agram": 4563,
      "ander": 4564,
      "osition": 4565,
      "Ġpsych": 4566,
      "ĠScience": 4567,
      "ferences": 4568,
      "Ġknows": 4569,
      "Ġcalls": 4570,
      "ĠAlex": 4571,
      "itness": 4572,
      "Ġdisapp": 4573,
      "Ġvalues": 4574,
      "ĠFlorida": 4575,
      "ĠDig": 4576,
      "Ġsuff": 4577,
      "icious": 4578,
      "ĠWall": 4579,
      "Ġserved": 4580,
      "ĠFIG": 4581,
      "how": 4582,
      "Ġadvantage": 4583,
      "Ġearth": 4584,
      "enance": 4585,
      "==": 4586,
      "NA": 4587,
      "IA": 4588,
      "ota": 4589,
      "Ġefforts": 4590,
      "standing": 4591,
      "Ġhomes": 4592,
      "Ġsecret": 4593,
      "ĠMen": 4594,
      "nect": 4595,
      "Ġpassed": 4596,
      "MS": 4597,
      "Ġcontains": 4598,
      "Ġpros": 4599,
      "Ġcoffee": 4600,
      "Ġorigin": 4601,
      "Ġreb": 4602,
      "Ġargu": 4603,
      "ĠTre": 4604,
      "Ġwouldn": 4605,
      "redients": 4606,
      "acks": 4607,
      "enses": 4608,
      "ĠStart": 4609,
      "ternal": 4610,
      "Ġlearned": 4611,
      "vere": 4612,
      "Ġsty": 4613,
      "ĠConst": 4614,
      "rics": 4615,
      "ĠBill": 4616,
      "ĠBay": 4617,
      "Ġlock": 4618,
      "semb": 4619,
      "Ġcivil": 4620,
      "ya": 4621,
      "Ġbedroom": 4622,
      "Ġrepe": 4623,
      "Ġharm": 4624,
      "ĠFollow": 4625,
      "ĠInf": 4626,
      "Ġluck": 4627,
      "Ġposts": 4628,
      "Ġvs": 4629,
      "Ch": 4630,
      "ĠPerson": 4631,
      "Ġrich": 4632,
      "ĠMount": 4633,
      "Ġmist": 4634,
      "Ġcra": 4635,
      "Ġessay": 4636,
      "ĠMedia": 4637,
      "ĠID": 4638,
      "ĠDescription": 4639,
      "azine": 4640,
      "Ġmanage": 4641,
      "Ġmotor": 4642,
      "fast": 4643,
      "Ġdaughter": 4644,
      "Ġcheap": 4645,
      "ĠShare": 4646,
      "ĠLicense": 4647,
      "Ġcritical": 4648,
      "Ġcounter": 4649,
      "Ġinvestig": 4650,
      "cks": 4651,
      "Ġsecure": 4652,
      "Ġhelping": 4653,
      "ĠCard": 4654,
      "overy": 4655,
      "ĠCH": 4656,
      "Ġoperation": 4657,
      "Ġrat": 4658,
      "clusive": 4659,
      "Ġlimit": 4660,
      "Ġhighest": 4661,
      "Ġmagn": 4662,
      "ĠEngland": 4663,
      "ĠUN": 4664,
      "asure": 4665,
      "Ġdemonstr": 4666,
      "Ġpoly": 4667,
      "Ġconfig": 4668,
      "miss": 4669,
      "Ġproduced": 4670,
      "ĠChic": 4671,
      "Ġrob": 4672,
      "isode": 4673,
      "ĠTest": 4674,
      "Ġguid": 4675,
      "Ġmentioned": 4676,
      "BS": 4677,
      "Ġcovered": 4678,
      "care": 4679,
      "ĠAfrica": 4680,
      "Ġleader": 4681,
      "Ġcreative": 4682,
      "well": 4683,
      "Ġremove": 4684,
      "ĠAuthor": 4685,
      "ĠDef": 4686,
      "ĠVir": 4687,
      "Ġworkers": 4688,
      "Ġsem": 4689,
      "lor": 4690,
      "Ġfactors": 4691,
      "Ġoperations": 4692,
      "istan": 4693,
      "Ġincred": 4694,
      "Ġfinding": 4695,
      "rs": 4696,
      "Ġretail": 4697,
      "Ġbra": 4698,
      "Ġestablish": 4699,
      "Ġtraffic": 4700,
      "Ġolder": 4701,
      "Ġfol": 4702,
      "Ġassign": 4703,
      "rim": 4704,
      "OC": 4705,
      "Ġcompleted": 4706,
      "RA": 4707,
      "IF": 4708,
      "iency": 4709,
      "Ġdriver": 4710,
      "Ġshape": 4711,
      "Ġclaims": 4712,
      "inder": 4713,
      "Ġbiggest": 4714,
      "Ġideal": 4715,
      "iled": 4716,
      "Ġpm": 4717,
      "Ġlose": 4718,
      "rd": 4719,
      "Ġdetermine": 4720,
      "Ġreality": 4721,
      "Ġstreet": 4722,
      "Ġutil": 4723,
      "ĠSecurity": 4724,
      "Ġconven": 4725,
      "Ġdoctor": 4726,
      "asp": 4727,
      "ĠHand": 4728,
      "Ġforeign": 4729,
      "Ġwhatever": 4730,
      "ĠHotel": 4731,
      "estival": 4732,
      "ĠBrown": 4733,
      "Ġcollabor": 4734,
      "Ġcontinued": 4735,
      "ĠCommission": 4736,
      "Ġcentral": 4737,
      "cribe": 4738,
      "Ġforms": 4739,
      "Ġmap": 4740,
      "Ġtend": 4741,
      "ixt": 4742,
      "Ġdied": 4743,
      "ervation": 4744,
      "works": 4745,
      "ĠRiver": 4746,
      "Ġmanager": 4747,
      "actions": 4748,
      "essor": 4749,
      "Ġboo": 4750,
      "Ġstandards": 4751,
      "vin": 4752,
      "Ġplaced": 4753,
      "ĠIndust": 4754,
      "ipes": 4755,
      "ĠMatt": 4756,
      "aked": 4757,
      "Ġshopping": 4758,
      "edy": 4759,
      "ĠAud": 4760,
      "Ġspring": 4761,
      "Ġtemperature": 4762,
      "Ġsugar": 4763,
      "ye": 4764,
      ");": 4765,
      "ĠInstitute": 4766,
      "antic": 4767,
      "ĠFamily": 4768,
      "ĠAmazon": 4769,
      "Ġotherwise": 4770,
      "ĠWatch": 4771,
      "Ġtransl": 4772,
      "Ġwaiting": 4773,
      "Ġthus": 4774,
      "Ġscen": 4775,
      "****": 4776,
      "verse": 4777,
      "Ġmaintain": 4778,
      "ĠMicrosoft": 4779,
      "ini": 4780,
      "Ġhandle": 4781,
      "??": 4782,
      "Ġsomew": 4783,
      "tr": 4784,
      "Ġbecomes": 4785,
      "Ġcapacity": 4786,
      "Ġvill": 4787,
      "ĠON": 4788,
      "ĠRad": 4789,
      "Ġcolle": 4790,
      "Ġtechnical": 4791,
      "eless": 4792,
      "Ġunc": 4793,
      "Ġrelax": 4794,
      "Ġprocessing": 4795,
      "ĠCommunity": 4796,
      "Ġrank": 4797,
      "ĠGovernment": 4798,
      "ĠSign": 4799,
      "Ġscene": 4800,
      "ĠOnly": 4801,
      "Ġscore": 4802,
      "ĠOrgan": 4803,
      "uty": 4804,
      "ii": 4805,
      "Ġ{": 4806,
      "roy": 4807,
      "Ġfish": 4808,
      "Ġhappens": 4809,
      "ĠCre": 4810,
      "ĠNote": 4811,
      "Ġselected": 4812,
      "night": 4813,
      "roud": 4814,
      "oma": 4815,
      "ĠIts": 4816,
      "Ġmission": 4817,
      "Ġexcept": 4818,
      "osis": 4819,
      "Ġparties": 4820,
      "la": 4821,
      "Ġshared": 4822,
      "ĠPlatform": 4823,
      "ĠNOT": 4824,
      "top": 4825,
      "ĠPack": 4826,
      "ĠManager": 4827,
      "Ġflav": 4828,
      "ĠFranc": 4829,
      "ĠProv": 4830,
      "Ġflex": 4831,
      "ented": 4832,
      "ĠMP": 4833,
      "usion": 4834,
      "edom": 4835,
      "ĠType": 4836,
      "Ġhelpful": 4837,
      "ĠPublisher": 4838,
      "Ġbalance": 4839,
      "Ġlands": 4840,
      "ius": 4841,
      "Ġreference": 4842,
      "Ġacadem": 4843,
      "words": 4844,
      "icate": 4845,
      "Ġmeant": 4846,
      "Ġcommit": 4847,
      "ĠÃ": 4848,
      "Ġgarden": 4849,
      "Ġrap": 4850,
      "ĠExt": 4851,
      "Ġwire": 4852,
      "Ġmedium": 4853,
      "ĠGen": 4854,
      "VD": 4855,
      "Ġformat": 4856,
      "berg": 4857,
      "inn": 4858,
      "ampions": 4859,
      "Ġoperating": 4860,
      "Ġinsp": 4861,
      "Ġbon": 4862,
      "Ġappears": 4863,
      "ĠTheir": 4864,
      "Ġfra": 4865,
      "Ġfill": 4866,
      "ortunately": 4867,
      "Ġtoward": 4868,
      "Ġestate": 4869,
      "Ġexhib": 4870,
      "ĠTri": 4871,
      "Ġrecords": 4872,
      "ĠĠ": 4873,
      "BA": 4874,
      "rowd": 4875,
      "iance": 4876,
      "ĠJul": 4877,
      "ĠDiv": 4878,
      "Ġign": 4879,
      "Ġkill": 4880,
      "Ġvote": 4881,
      "Ġfram": 4882,
      "Ġconnected": 4883,
      "ĠHead": 4884,
      "Ġpresented": 4885,
      "Ġcolors": 4886,
      "ki": 4887,
      "Ġeth": 4888,
      "itz": 4889,
      "ĠBefore": 4890,
      "Ġtesting": 4891,
      "Ġoutput": 4892,
      "Ġap": 4893,
      "Ġshipping": 4894,
      "ĠSupport": 4895,
      "Ġorganizations": 4896,
      "Ġvir": 4897,
      "ĠCentral": 4898,
      "ĠDemocr": 4899,
      "Ġshowing": 4900,
      "ĠPage": 4901,
      "Ġaudience": 4902,
      "Ġwine": 4903,
      "Ġefficient": 4904,
      "Ġrooms": 4905,
      "Ġgrant": 4906,
      "known": 4907,
      "Ġexercise": 4908,
      "Ġentry": 4909,
      "Ġuns": 4910,
      "Ġprincip": 4911,
      "Ġtree": 4912,
      "Ġrare": 4913,
      "Ġegg": 4914,
      "Ġbrows": 4915,
      "ĠAccess": 4916,
      "ĠNext": 4917,
      "Ġcasino": 4918,
      "Ġevening": 4919,
      "Ġcraft": 4920,
      "Ġruns": 4921,
      "-the": 4922,
      "Ġwatching": 4923,
      "Ġbuying": 4924,
      "Ġlisted": 4925,
      "uality": 4926,
      "entially": 4927,
      "gery": 4928,
      "Ġimpl": 4929,
      "Ġcaused": 4930,
      "ga": 4931,
      "ĠFOR": 4932,
      "ĠLog": 4933,
      "Ġbathroom": 4934,
      "Ġbought": 4935,
      "Ġincor": 4936,
      "hi": 4937,
      "Ġfootball": 4938,
      "atin": 4939,
      "Ġpair": 4940,
      "Ġforget": 4941,
      "umin": 4942,
      "ĠGeorge": 4943,
      "ĠGame": 4944,
      "Ġcompar": 4945,
      "bed": 4946,
      "Ġcream": 4947,
      "Ġice": 4948,
      "gment": 4949,
      "rees": 4950,
      "ĠJer": 4951,
      "ĠMad": 4952,
      "Ġjourney": 4953,
      "Phone": 4954,
      "ĠOffic": 4955,
      "estic": 4956,
      "Ġarticles": 4957,
      "ĠSearch": 4958,
      "mpt": 4959,
      "Ġpurs": 4960,
      "Ġdocuments": 4961,
      "-L": 4962,
      "rical": 4963,
      "TH": 4964,
      "ĠDi": 4965,
      "ommod": 4966,
      "Ġinfo": 4967,
      "Ġprepared": 4968,
      "active": 4969,
      "Ġbeat": 4970,
      "Ġdie": 4971,
      "Ġchallenges": 4972,
      "vention": 4973,
      "ĠOld": 4974,
      "unning": 4975,
      "ĠApplic": 4976,
      "Ġhospital": 4977,
      "Ġadding": 4978,
      "unte": 4979,
      "Ġgain": 4980,
      "Ġadvance": 4981,
      "ĠEqu": 4982,
      "ĠParty": 4983,
      "CE": 4984,
      "Ġclassic": 4985,
      "eared": 4986,
      "ĠSand": 4987,
      "ĠLearn": 4988,
      "ishes": 4989,
      "obe": 4990,
      "Ġcars": 4991,
      "âĢĿ,": 4992,
      "Ġkeeping": 4993,
      "Ġplants": 4994,
      "Ġrelevant": 4995,
      "Ġpackage": 4996,
      "Ġnotes": 4997,
      "Ġopinion": 4998,
      "ĠTor": 4999,
      "ĠMexic": 5000,
      "Ġestim": 5001,
      "Ġadvanced": 5002,
      "Ġremains": 5003,
      "Ġconference": 5004,
      "ĠGrand": 5005,
      "Ġfamous": 5006,
      "ĠHill": 5007,
      "Ġseparate": 5008,
      "gency": 5009,
      "Ġsequ": 5010,
      "ĠSmith": 5011,
      "Ġlaunch": 5012,
      "ĠTim": 5013,
      "Ġdram": 5014,
      "Ġsources": 5015,
      "ĠLake": 5016,
      "ĠCy": 5017,
      "ĠOper": 5018,
      "inct": 5019,
      "Ġder": 5020,
      "hy": 5021,
      "ctors": 5022,
      "Ġmail": 5023,
      "Ġthousands": 5024,
      "Ġarm": 5025,
      "ĠTeam": 5026,
      "Ġteaching": 5027,
      "Ġclearly": 5028,
      "Ġstone": 5029,
      "-term": 5030,
      "ĠSP": 5031,
      "Ġclosed": 5032,
      "Ġswitch": 5033,
      "Ġtask": 5034,
      "Ġdeveloping": 5035,
      "ĠTimes": 5036,
      "Ġtopic": 5037,
      "Ġur": 5038,
      "ĠCongress": 5039,
      "Ġholiday": 5040,
      "ĠSoftware": 5041,
      "Ġopened": 5042,
      "ooper": 5043,
      "Ġsmooth": 5044,
      "ĠNov": 5045,
      "ulated": 5046,
      ".[": 5047,
      "ano": 5048,
      "amin": 5049,
      "Ġpolic": 5050,
      "een": 5051,
      "Ġcitiz": 5052,
      "Ġbright": 5053,
      "Ġcatch": 5054,
      "Ġexperiences": 5055,
      "no": 5056,
      "ĠBeach": 5057,
      "ĠRoom": 5058,
      "ĠTechnology": 5059,
      "ĠYOU": 5060,
      "Ġfold": 5061,
      "Ġcart": 5062,
      "Ġfriendly": 5063,
      "ifts": 5064,
      "crete": 5065,
      "ĠQue": 5066,
      "outhern": 5067,
      "cles": 5068,
      "Ġwinter": 5069,
      "ava": 5070,
      "-of": 5071,
      "Re": 5072,
      "fit": 5073,
      "Ġelement": 5074,
      "SS": 5075,
      "Ġjournal": 5076,
      "ĠUpd": 5077,
      "Ġkid": 5078,
      "reek": 5079,
      "ĠKeep": 5080,
      "Ġcontinues": 5081,
      "ucle": 5082,
      "Ġer": 5083,
      "enture": 5084,
      "Ġcalcul": 5085,
      "ĠTem": 5086,
      "ĠBlog": 5087,
      "Ġtaste": 5088,
      "Ġsignal": 5089,
      "Ġproperties": 5090,
      "Ġcombination": 5091,
      "ĠMass": 5092,
      "Ġtrial": 5093,
      "Ġsharing": 5094,
      "lands": 5095,
      "ĠNY": 5096,
      "Ġwelcome": 5097,
      "Ġmajority": 5098,
      "uated": 5099,
      "ĠSup": 5100,
      "ĠMel": 5101,
      "ĠIP": 5102,
      "ocolate": 5103,
      "esterday": 5104,
      "clusion": 5105,
      "Ġindependent": 5106,
      "rehens": 5107,
      "ĠAT": 5108,
      "ĠRest": 5109,
      "Ġspl": 5110,
      "Ġinitial": 5111,
      "ĠBrand": 5112,
      "Ġcris": 5113,
      "Ġrule": 5114,
      "mary": 5115,
      "ht": 5116,
      "ĠQuest": 5117,
      "Ġplenty": 5118,
      "pet": 5119,
      "Ġsession": 5120,
      "ĠCrus": 5121,
      "ums": 5122,
      "Ġshowed": 5123,
      "Ġcompetition": 5124,
      "Ġarchitect": 5125,
      "ifications": 5126,
      "ĠDou": 5127,
      "ĠMedical": 5128,
      "ien": 5129,
      "Ġmo": 5130,
      "ml": 5131,
      "ita": 5132,
      "Ġfacilities": 5133,
      "Ġminute": 5134,
      "Ġcore": 5135,
      "Ġstarts": 5136,
      "-on": 5137,
      "Ġjump": 5138,
      "Ġbeauty": 5139,
      "Ġfunds": 5140,
      "Ġmode": 5141,
      "ĠSomet": 5142,
      "Ġapplied": 5143,
      "ĠSeries": 5144,
      "orney": 5145,
      "ĠBas": 5146,
      "ĠMult": 5147,
      "ĠChicago": 5148,
      "Ġsch": 5149,
      "eria": 5150,
      "Ġmovies": 5151,
      "Ġmale": 5152,
      "Ġhonest": 5153,
      "Ġpassion": 5154,
      "ĠProte": 5155,
      "Ġclasses": 5156,
      "going": 5157,
      "urd": 5158,
      "Ġlayer": 5159,
      "Ġdetect": 5160,
      "Ġagreement": 5161,
      "ĠTable": 5162,
      "Ġwilling": 5163,
      "Ġended": 5164,
      "bo": 5165,
      "Ġsmaller": 5166,
      "Ġsouth": 5167,
      "eed": 5168,
      "Ġleaving": 5169,
      "uce": 5170,
      "abilities": 5171,
      "ĠMS": 5172,
      "ĠScott": 5173,
      "Ġaudio": 5174,
      "ä¸": 5175,
      "Ġflat": 5176,
      "Ġcloud": 5177,
      "Ġrestaurant": 5178,
      "ĠRobert": 5179,
      "ĠCarol": 5180,
      "Ġinput": 5181,
      "Ġthoughts": 5182,
      "Ġsounds": 5183,
      "ĠPriv": 5184,
      "Ġhar": 5185,
      "ĠLim": 5186,
      "Ġdiscussion": 5187,
      "ĠVer": 5188,
      "Ġbecoming": 5189,
      "uled": 5190,
      "Ġdesk": 5191,
      "Ġseemed": 5192,
      "ront": 5193,
      "Ġdiscover": 5194,
      "eline": 5195,
      "LC": 5196,
      "rier": 5197,
      "idential": 5198,
      "Ġframe": 5199,
      "ĠCA": 5200,
      "Ġchat": 5201,
      "Ġactions": 5202,
      "Ġdecide": 5203,
      "td": 5204,
      "Ġship": 5205,
      "iliar": 5206,
      "Ġdepos": 5207,
      "Ġbeach": 5208,
      "ĠContinue": 5209,
      "Ġmulti": 5210,
      "ĠNetwork": 5211,
      "isco": 5212,
      "Ġdistance": 5213,
      "Ġbehavior": 5214,
      "Ġcommunities": 5215,
      "Ġdim": 5216,
      "UL": 5217,
      "ĠFrank": 5218,
      "Ġenhance": 5219,
      "ĠDistrict": 5220,
      "TER": 5221,
      "Ġconcent": 5222,
      "Ġvan": 5223,
      "Ġcommand": 5224,
      "yer": 5225,
      "ĠBi": 5226,
      "Ġrepair": 5227,
      "Ġlegisl": 5228,
      "isation": 5229,
      "aser": 5230,
      "ĠJud": 5231,
      "ĠBoth": 5232,
      "Ġsea": 5233,
      "Ġschedule": 5234,
      "xy": 5235,
      "Ġanimals": 5236,
      "Ġleaves": 5237,
      "ĠJournal": 5238,
      "Ġdiscount": 5239,
      "ĠTrump": 5240,
      "ĠId": 5241,
      "Ġappeal": 5242,
      "DA": 5243,
      "ĠWeek": 5244,
      "Ġabsolutely": 5245,
      "iated": 5246,
      "ĠSecond": 5247,
      "ĠCommittee": 5248,
      "Ġexcited": 5249,
      "Ġradio": 5250,
      "ĠHD": 5251,
      "-sh": 5252,
      "mark": 5253,
      "coh": 5254,
      "Ġhyd": 5255,
      "Ġagency": 5256,
      "craft": 5257,
      "Ġspending": 5258,
      "Ġpresence": 5259,
      "ublish": 5260,
      "Ġfuel": 5261,
      "Ġunless": 5262,
      "Ġcoverage": 5263,
      "ĠCateg": 5264,
      "Ġpal": 5265,
      "Ġembod": 5266,
      "Ġplastic": 5267,
      "look": 5268,
      "uts": 5269,
      "Ġdepartment": 5270,
      "ĠOk": 5271,
      "ĠHam": 5272,
      "Ġdiagn": 5273,
      "ĠGerman": 5274,
      "Ġmarkets": 5275,
      "Ġoptim": 5276,
      "Ġmort": 5277,
      "CA": 5278,
      "Ġrid": 5279,
      "Ġsets": 5280,
      "Ġvalid": 5281,
      "Ġdedicated": 5282,
      "Ð¸": 5283,
      "ĠDoes": 5284,
      "ĠMa": 5285,
      "alls": 5286,
      "Ġvisual": 5287,
      "arrant": 5288,
      "bert": 5289,
      "ĠGirl": 5290,
      "Ġchanging": 5291,
      "ender": 5292,
      "UN": 5293,
      "Ġworry": 5294,
      "Ġdatabase": 5295,
      "ĠCode": 5296,
      "Ġthick": 5297,
      "outs": 5298,
      "Ġprofile": 5299,
      "Ġu": 5300,
      "Ġban": 5301,
      "Ġdinner": 5302,
      "ania": 5303,
      "Ġprop": 5304,
      "edia": 5305,
      "ĠIde": 5306,
      "Ġartist": 5307,
      "Ġthrow": 5308,
      "idden": 5309,
      "ML": 5310,
      "Ġselling": 5311,
      "Ġsnow": 5312,
      "ĠCost": 5313,
      "Ġlic": 5314,
      "Ġtheme": 5315,
      "Ġlisten": 5316,
      "Ġapart": 5317,
      "allery": 5318,
      "Ġcorner": 5319,
      "Ġperformed": 5320,
      "Ġalternative": 5321,
      "ĠPeter": 5322,
      "Ġdespite": 5323,
      "/s": 5324,
      "Ġspect": 5325,
      "Ġanswers": 5326,
      "ĠInvest": 5327,
      "Ġfell": 5328,
      "Ġsenior": 5329,
      "Ġcircum": 5330,
      "Ġchair": 5331,
      "ĠSecret": 5332,
      "ocket": 5333,
      "cher": 5334,
      "inter": 5335,
      "reed": 5336,
      "Ġportion": 5337,
      "ste": 5338,
      "Ġproud": 5339,
      "ĠTur": 5340,
      "ola": 5341,
      "Ġbrief": 5342,
      "Ġsuppl": 5343,
      "gers": 5344,
      "Ġnor": 5345,
      "Ġsongs": 5346,
      "Ġraised": 5347,
      "Ġcrowd": 5348,
      "Ġtechniques": 5349,
      "appy": 5350,
      "ructure": 5351,
      "ears": 5352,
      "Ġbird": 5353,
      "ĠHa": 5354,
      "ĠPass": 5355,
      "anda": 5356,
      "ĠFrance": 5357,
      "Ġpanel": 5358,
      "ĠCas": 5359,
      "Ġunits": 5360,
      "poses": 5361,
      "ĠHistory": 5362,
      "ĠÂ»Ċ": 5363,
      "Ġadapt": 5364,
      "âĢĿ.": 5365,
      "Ġdisp": 5366,
      "ĠMaster": 5367,
      "Ġgeneration": 5368,
      "Ġrot": 5369,
      "Ġrain": 5370,
      "Ġdyn": 5371,
      "ĠPan": 5372,
      "Ġvictim": 5373,
      "ĠBur": 5374,
      "Ġwalking": 5375,
      "Ġvision": 5376,
      "Ġpreviously": 5377,
      "Ġlaun": 5378,
      "Ġslightly": 5379,
      "Ġmenu": 5380,
      "Ġloans": 5381,
      "ĠEconom": 5382,
      "Ġinspir": 5383,
      "ulture": 5384,
      "Ġnumerous": 5385,
      "ĠCreat": 5386,
      "Ġfemale": 5387,
      "Ġidentify": 5388,
      "ĠJim": 5389,
      "-R": 5390,
      "Ġthr": 5391,
      "Ġdebt": 5392,
      "Ġteacher": 5393,
      "otic": 5394,
      "Ġerror": 5395,
      "iquid": 5396,
      "Ġmir": 5397,
      "orry": 5398,
      "PA": 5399,
      "Ġbrings": 5400,
      "ĠGuide": 5401,
      "with": 5402,
      "Ġbattle": 5403,
      "Ġsched": 5404,
      "Ġwebsites": 5405,
      "Ġ[âĢ¦]Ċ": 5406,
      "rupt": 5407,
      "Ġmostly": 5408,
      "ĠIll": 5409,
      "Ġwhom": 5410,
      "Ġpractices": 5411,
      "Ġsector": 5412,
      "ulate": 5413,
      "Ġnorth": 5414,
      ".D": 5415,
      "Ġrelationships": 5416,
      "Ġvolume": 5417,
      "Ġeating": 5418,
      "ĠBer": 5419,
      "ĠSource": 5420,
      "Ġteen": 5421,
      "________________": 5422,
      "pons": 5423,
      "ĠCook": 5424,
      "ĠLead": 5425,
      "ĠTit": 5426,
      "Ġprocesses": 5427,
      "ĠEarth": 5428,
      "Ġrecipe": 5429,
      "Ġstars": 5430,
      "iences": 5431,
      ".e": 5432,
      "ĠUsing": 5433,
      "hab": 5434,
      "Ġwaste": 5435,
      "Ġdecisions": 5436,
      "Ġveget": 5437,
      "pan": 5438,
      "kin": 5439,
      "ĠUnion": 5440,
      "Ġstores": 5441,
      "ĠMax": 5442,
      "Ġedge": 5443,
      "uries": 5444,
      "ĠMain": 5445,
      "Ġfilled": 5446,
      "zen": 5447,
      "ĠCat": 5448,
      "Ġguests": 5449,
      "Ġquant": 5450,
      "Ġillustr": 5451,
      "Ġshut": 5452,
      "Ġproceed": 5453,
      "ensions": 5454,
      "Ġmanner": 5455,
      "ĠWil": 5456,
      "Ġdoubt": 5457,
      "prise": 5458,
      "Ġmanaged": 5459,
      "(s": 5460,
      "Ġexplore": 5461,
      "Ġpolicies": 5462,
      "Ġofficials": 5463,
      "Ġsustain": 5464,
      "ĠMer": 5465,
      "Ġlabor": 5466,
      "Ġcomponents": 5467,
      "Ġnegative": 5468,
      "-se": 5469,
      "Ġaccommod": 5470,
      "ĠOR": 5471,
      "nel": 5472,
      "Ġkilled": 5473,
      "Ġsympt": 5474,
      "Ġminimum": 5475,
      "Ġcompr": 5476,
      "gage": 5477,
      "Ġcoach": 5478,
      "ĠLive": 5479,
      "Ġfabric": 5480,
      "Ġexperts": 5481,
      "Ġexpensive": 5482,
      "Ġawesome": 5483,
      "ĠAcadem": 5484,
      "REE": 5485,
      "ĠGlobal": 5486,
      "ĠEp": 5487,
      "ĠDen": 5488,
      "ĠUl": 5489,
      "asks": 5490,
      "Ġmouth": 5491,
      "Ġfee": 5492,
      "Ġinternal": 5493,
      "Ġride": 5494,
      "tered": 5495,
      "Ġputting": 5496,
      "Ġexchange": 5497,
      "ĠMat": 5498,
      "-le": 5499,
      "ĠHard": 5500,
      "Ġliked": 5501,
      "ĠPlus": 5502,
      "Ġexception": 5503,
      "Ġkick": 5504,
      "orthern": 5505,
      "ĠLos": 5506,
      "respond": 5507,
      "but": 5508,
      "ĠControl": 5509,
      "Ġleadership": 5510,
      "Ġanc": 5511,
      "Ġremoved": 5512,
      "ĠAD": 5513,
      "Ġfunctions": 5514,
      "Ġseat": 5515,
      "ĠEr": 5516,
      "Ġcorporate": 5517,
      "ĠGal": 5518,
      "Ġreturned": 5519,
      "ĠChris": 5520,
      "Ġmaximum": 5521,
      "II": 5522,
      "Ġsport": 5523,
      "Ġasking": 5524,
      "........": 5525,
      "ĠDev": 5526,
      "Ġinjury": 5527,
      "igan": 5528,
      "Ġcontext": 5529,
      "iability": 5530,
      "ĠPolicy": 5531,
      "otten": 5532,
      "Ġju": 5533,
      "Ġmental": 5534,
      "Ġrub": 5535,
      "Ġtrading": 5536,
      "Ġapproximately": 5537,
      "yan": 5538,
      "Ġfuck": 5539,
      "ĠFund": 5540,
      "ĠFeatures": 5541,
      "Ġreached": 5542,
      "-day": 5543,
      "ĠWestern": 5544,
      "Ġcrim": 5545,
      "Ġweap": 5546,
      "ĠRev": 5547,
      "Ġplug": 5548,
      "ĠLouis": 5549,
      "Ġfurniture": 5550,
      "ĠMike": 5551,
      "Ġyes": 5552,
      "Ġring": 5553,
      "ĠAtl": 5554,
      "ĠCup": 5555,
      "ERS": 5556,
      "Ġexciting": 5557,
      "oses": 5558,
      "Ġsexual": 5559,
      "comm": 5560,
      "Ġupdated": 5561,
      "Ġpurposes": 5562,
      "Ġscale": 5563,
      "ĠVirgin": 5564,
      "Ġchemical": 5565,
      "essions": 5566,
      "Ġrise": 5567,
      "EST": 5568,
      "ship": 5569,
      "Ġreaders": 5570,
      "ĠMo": 5571,
      "Ġadministration": 5572,
      "ĠMont": 5573,
      "ĠMobile": 5574,
      "Ġforg": 5575,
      "ĠAmericans": 5576,
      "Ġmaintenance": 5577,
      "ĠGermany": 5578,
      "fol": 5579,
      "ĠEnergy": 5580,
      "mes": 5581,
      "ias": 5582,
      "Ġtow": 5583,
      "ĠLeague": 5584,
      "Ġneighbor": 5585,
      "Ġtotally": 5586,
      "Ġfocused": 5587,
      "Ġiron": 5588,
      "Ġcleaning": 5589,
      "rome": 5590,
      "Ġhearing": 5591,
      "ĠHuman": 5592,
      "Ġshel": 5593,
      "-pro": 5594,
      "ĠExam": 5595,
      "ĠThose": 5596,
      "ĠFoundation": 5597,
      "Ġupgr": 5598,
      "ĠVict": 5599,
      "gl": 5600,
      "ĠWhether": 5601,
      "Ġmine": 5602,
      "Ġsalt": 5603,
      "-free": 5604,
      "EE": 5605,
      "ĠEnd": 5606,
      "Ġeffic": 5607,
      "bour": 5608,
      "Ġjoint": 5609,
      "Ġprofessionals": 5610,
      "ĠHi": 5611,
      "Ġtight": 5612,
      "Ġbond": 5613,
      "Ġmarriage": 5614,
      "Ġspecies": 5615,
      "AB": 5616,
      "osen": 5617,
      "Ġconsid": 5618,
      "Ġsoul": 5619,
      "ĠPop": 5620,
      "ĠSale": 5621,
      "ĠWH": 5622,
      "met": 5623,
      "Ġintellig": 5624,
      "Ġquiet": 5625,
      "Ġmissing": 5626,
      "aks": 5627,
      "ache": 5628,
      "ĠRelated": 5629,
      "ĠDVD": 5630,
      "ĠDigital": 5631,
      "Ã¡": 5632,
      "Ġrecommended": 5633,
      "Ġwinning": 5634,
      "iat": 5635,
      "Ġconver": 5636,
      "Ġpun": 5637,
      "lock": 5638,
      "ĠThomas": 5639,
      "Ġresponsibility": 5640,
      "ĠEar": 5641,
      "Ġteachers": 5642,
      "ĠRequ": 5643,
      "eah": 5644,
      "Ġneck": 5645,
      "Ġminor": 5646,
      "Ġfeels": 5647,
      "ĠOrig": 5648,
      "ĠMaybe": 5649,
      "Ġallowing": 5650,
      "Ġingredients": 5651,
      "Ġenjoyed": 5652,
      "poration": 5653,
      "friend": 5654,
      "Ġrom": 5655,
      "Ġenvironmental": 5656,
      "Ġlux": 5657,
      "Ġdesigns": 5658,
      "ĠJoe": 5659,
      "ĠDom": 5660,
      "Ġpredict": 5661,
      "ĠAdminist": 5662,
      "which": 5663,
      "Ġfees": 5664,
      "Ġinfluence": 5665,
      "..Ċ": 5666,
      "Ġexplain": 5667,
      "while": 5668,
      "den": 5669,
      "Ġsigned": 5670,
      "Ġpregn": 5671,
      "Ġbutter": 5672,
      "ĠOpt": 5673,
      "ĠPDF": 5674,
      "Ġdetailed": 5675,
      "Ġsav": 5676,
      "ena": 5677,
      "orter": 5678,
      "Ġeventually": 5679,
      "icians": 5680,
      "Ġtypically": 5681,
      "do": 5682,
      "Ġpoll": 5683,
      "Ġcontem": 5684,
      "paper": 5685,
      "ĠExpl": 5686,
      "If": 5687,
      "Ġresidents": 5688,
      "ĠOl": 5689,
      "Ġremote": 5690,
      "ician": 5691,
      "ĠSqu": 5692,
      "Ġburn": 5693,
      "Ġinvention": 5694,
      "ĠName": 5695,
      "Ġbusy": 5696,
      "Ġalle": 5697,
      "Ġartists": 5698,
      "Ġphil": 5699,
      "ograp": 5700,
      "ools": 5701,
      "Ġparking": 5702,
      "Ġmarried": 5703,
      "Ġdefense": 5704,
      "ivered": 5705,
      "Ġlibrary": 5706,
      "Ġorders": 5707,
      "SP": 5708,
      "Ġforces": 5709,
      "Ġclimate": 5710,
      "Ġbattery": 5711,
      "Ġmanual": 5712,
      "ĠDetails": 5713,
      "list": 5714,
      "Ġintended": 5715,
      "ĠâĢ¦Ċ": 5716,
      "-re": 5717,
      "Ġarrest": 5718,
      "Ġsymb": 5719,
      "hop": 5720,
      "ĠJapanese": 5721,
      "alian": 5722,
      "inations": 5723,
      "Ġdetermined": 5724,
      "ĠWay": 5725,
      "Ġholding": 5726,
      "ĠInte": 5727,
      "Ġaccident": 5728,
      "Ġmeasures": 5729,
      "Ġdistrict": 5730,
      "ĠKnow": 5731,
      "Ġprofit": 5732,
      "Ġproperly": 5733,
      "Ġplays": 5734,
      "Ġleads": 5735,
      "ĠAfrican": 5736,
      "Ġstated": 5737,
      "cean": 5738,
      "Ġanimal": 5739,
      "ĠBob": 5740,
      "Ġhttps": 5741,
      "Ġupp": 5742,
      "ĠSociety": 5743,
      "Ġseek": 5744,
      "Ġtables": 5745,
      "ĠNor": 5746,
      "Ġsitting": 5747,
      "Ġarrange": 5748,
      "igr": 5749,
      "Ġwindows": 5750,
      "uke": 5751,
      "Ġelection": 5752,
      "ario": 5753,
      "elines": 5754,
      "rehensive": 5755,
      "Ġshoes": 5756,
      "Ġbrown": 5757,
      "Ġaccompl": 5758,
      "iest": 5759,
      "fection": 5760,
      "Ġautomatically": 5761,
      "ulations": 5762,
      "cohol": 5763,
      "ĠKore": 5764,
      "olars": 5765,
      "Ġ~": 5766,
      "Ġcop": 5767,
      "Ġsquare": 5768,
      "Ġseeking": 5769,
      "hors": 5770,
      "Ġassistance": 5771,
      "uzz": 5772,
      "ria": 5773,
      "noon": 5774,
      "ĠHelp": 5775,
      "adian": 5776,
      "uations": 5777,
      "Ġconcerns": 5778,
      "Ġfunding": 5779,
      "ĠAR": 5780,
      "Ġcourses": 5781,
      "ĠSH": 5782,
      "ĠValley": 5783,
      "Ġplate": 5784,
      "Ġencourage": 5785,
      "ords": 5786,
      "FL": 5787,
      "Ġscript": 5788,
      "ĠJun": 5789,
      "ĠSaf": 5790,
      "Ġdescription": 5791,
      "ĠWal": 5792,
      "Ġassum": 5793,
      "Ġdecre": 5794,
      "-H": 5795,
      "Ġcities": 5796,
      "sembly": 5797,
      "PR": 5798,
      "Ġspecifically": 5799,
      "ĠChildren": 5800,
      "ĠTerm": 5801,
      "iner": 5802,
      "acle": 5803,
      "ĠSubs": 5804,
      "agers": 5805,
      "ev": 5806,
      "ĠNon": 5807,
      "ĠBed": 5808,
      "ĠWebs": 5809,
      "Ġappeared": 5810,
      "ÃŃ": 5811,
      "-G": 5812,
      "Ġconflic": 5813,
      "Ġsample": 5814,
      "oration": 5815,
      "ĠDid": 5816,
      "Ġoccup": 5817,
      "Ġstret": 5818,
      "Ġwriter": 5819,
      "Ġeditor": 5820,
      "ĠFurther": 5821,
      "Ġaccounts": 5822,
      "Ġsupposed": 5823,
      "Ġteach": 5824,
      "Ġcharges": 5825,
      "Ġtransform": 5826,
      "rad": 5827,
      "vis": 5828,
      "plate": 5829,
      "ĠSpring": 5830,
      "Ġapparent": 5831,
      "Ġpossibly": 5832,
      "ĠBoy": 5833,
      "Ġobl": 5834,
      "po": 5835,
      "Ġcommitted": 5836,
      "ĠTown": 5837,
      "Ġpump": 5838,
      "Ġelim": 5839,
      "-Ċ": 5840,
      "Ġpus": 5841,
      "ĠRight": 5842,
      "Ġelectronic": 5843,
      "irty": 5844,
      "ĠSports": 5845,
      "Ġdial": 5846,
      "lets": 5847,
      "Ġbound": 5848,
      "Ġcalling": 5849,
      "ĠTour": 5850,
      "ĠAccount": 5851,
      "Ġinstance": 5852,
      "onym": 5853,
      "Ġcombined": 5854,
      "ĠPhoto": 5855,
      "Ġapps": 5856,
      "Ġjoined": 5857,
      "abled": 5858,
      "ulous": 5859,
      "Ġseconds": 5860,
      "Ġchart": 5861,
      "Ġinterface": 5862,
      "Ġagent": 5863,
      "ĠLand": 5864,
      "Ġsupported": 5865,
      "ĠAward": 5866,
      "odies": 5867,
      "creen": 5868,
      "Ġlovely": 5869,
      "ĠLtd": 5870,
      "ĠStat": 5871,
      "ello": 5872,
      "Ġpush": 5873,
      "Ġking": 5874,
      "Ġfacility": 5875,
      "ĠThrough": 5876,
      "Ġfamiliar": 5877,
      "Ġimportance": 5878,
      "cious": 5879,
      "Ġvolunte": 5880,
      "Ġlocations": 5881,
      "Ġexamples": 5882,
      "ĠJose": 5883,
      "Ġliber": 5884,
      "Ġsigns": 5885,
      "bre": 5886,
      "Ġchannel": 5887,
      "Ġanywhere": 5888,
      "aturing": 5889,
      "Ġsurvey": 5890,
      "SA": 5891,
      "ĠLo": 5892,
      "ĠPolice": 5893,
      "Ġfixed": 5894,
      "UM": 5895,
      "ĠSmall": 5896,
      "ĠFun": 5897,
      "ĠGames": 5898,
      "anged": 5899,
      "alog": 5900,
      "lee": 5901,
      "burg": 5902,
      "Ġfif": 5903,
      "Ġfruit": 5904,
      "uable": 5905,
      "Ġserving": 5906,
      "ĠLow": 5907,
      "ĠCert": 5908,
      "han": 5909,
      "ĠOrder": 5910,
      "ĠTravel": 5911,
      "Ġindustrial": 5912,
      "Ġyouth": 5913,
      "Ġfailed": 5914,
      "Ġtun": 5915,
      "ĠOil": 5916,
      "ĠReviews": 5917,
      "Ġvisitors": 5918,
      "Ġformed": 5919,
      "Ġsuitable": 5920,
      "azz": 5921,
      "Ġwid": 5922,
      "ato": 5923,
      "ala": 5924,
      "Ġmotiv": 5925,
      "Ġarg": 5926,
      "kins": 5927,
      "Ġcorrespond": 5928,
      "Ġfailure": 5929,
      "Ġprovider": 5930,
      "Ġthread": 5931,
      "hetic": 5932,
      "ĠCON": 5933,
      "Ġoutdoor": 5934,
      "abet": 5935,
      "ĠAff": 5936,
      "ĠMarketing": 5937,
      "df": 5938,
      "Ġfaster": 5939,
      "Ġfantastic": 5940,
      "Ġcauses": 5941,
      "aped": 5942,
      "dden": 5943,
      "ĠProfession": 5944,
      "Ġrecovery": 5945,
      "Ġtrees": 5946,
      "Ġsides": 5947,
      "Ġcabin": 5948,
      "Ġcircumst": 5949,
      "ĠSar": 5950,
      "ĠWalk": 5951,
      "Ġaspects": 5952,
      "hent": 5953,
      "Cl": 5954,
      "LY": 5955,
      "ĠPrem": 5956,
      "Ġrapid": 5957,
      "Ġdiss": 5958,
      "ĠCa": 5959,
      "inating": 5960,
      "mond": 5961,
      "pected": 5962,
      "Ġinstallation": 5963,
      "ua": 5964,
      "Ġhun": 5965,
      "Ġremind": 5966,
      "Ġmilk": 5967,
      "Ġnoted": 5968,
      "Ġswim": 5969,
      "Ġcategory": 5970,
      "Ġyesterday": 5971,
      "Ġtells": 5972,
      "Ġintroduced": 5973,
      "Ġconversation": 5974,
      "Ġaf": 5975,
      "ĠCath": 5976,
      "Ġment": 5977,
      "Ġannounce": 5978,
      "Ġdefined": 5979,
      "Ġrealize": 5980,
      "Ġrand": 5981,
      "Ġamb": 5982,
      "Ġdiscl": 5983,
      "ĠThree": 5984,
      "Ġfactor": 5985,
      "Ġdollars": 5986,
      "ĠPosts": 5987,
      "weight": 5988,
      "Ġlabel": 5989,
      "ĠJeff": 5990,
      "Ġpure": 5991,
      "Ġhousing": 5992,
      "Ġsymptoms": 5993,
      "arsh": 5994,
      "Ġlived": 5995,
      "ĠBeaut": 5996,
      "Ġtelevision": 5997,
      "Ġdepending": 5998,
      "Ġnav": 5999,
      "ĠAssist": 6000,
      "Ġappearance": 6001,
      "Ġdogs": 6002,
      "Ġiniti": 6003,
      "What": 6004,
      "Ġtheory": 6005,
      "Ġapproved": 6006,
      "Ġvehicles": 6007,
      "okes": 6008,
      "ĠSn": 6009,
      "ĠSales": 6010,
      "Ġregistered": 6011,
      "Ġwheel": 6012,
      "Ġmel": 6013,
      "Ġupdates": 6014,
      "ĠWr": 6015,
      "ĠLocation": 6016,
      "ĠBox": 6017,
      "Ġdrugs": 6018,
      "ĠIsl": 6019,
      "Ġinstalled": 6020,
      "pes": 6021,
      "Ġscr": 6022,
      "Ġfourth": 6023,
      "Ġfavour": 6024,
      "Ġdelivered": 6025,
      "Ġepisode": 6026,
      "ĠFederal": 6027,
      "Ġadvertising": 6028,
      "oted": 6029,
      "aren": 6030,
      "Ġbask": 6031,
      "phas": 6032,
      "-th": 6033,
      "-and": 6034,
      "Ġraise": 6035,
      "Ġdefend": 6036,
      "cluding": 6037,
      "Ġsudden": 6038,
      "iamond": 6039,
      "Ġdesire": 6040,
      "ĠWhich": 6041,
      "-cl": 6042,
      "ESS": 6043,
      "ĠCEO": 6044,
      "Ġok": 6045,
      "Ġdistribution": 6046,
      "ĠRef": 6047,
      "Ġris": 6048,
      "Ġourselves": 6049,
      "Ġgoods": 6050,
      "equ": 6051,
      "Pro": 6052,
      "ĠCred": 6053,
      "ossible": 6054,
      "ibilities": 6055,
      "Ġbigger": 6056,
      "Ġcaught": 6057,
      "Ġturns": 6058,
      "Ġ^": 6059,
      "Ġkinds": 6060,
      "Ġuniversity": 6061,
      "ĠMic": 6062,
      "ĠMinister": 6063,
      "Ġfeedback": 6064,
      "ĠPlace": 6065,
      "Ġbroken": 6066,
      "ora": 6067,
      "ĠWild": 6068,
      "ĠMuseum": 6069,
      "Ġcultural": 6070,
      "Ġtough": 6071,
      "ĠNight": 6072,
      "Ġacademic": 6073,
      "iveness": 6074,
      "Ġspons": 6075,
      "Ġhero": 6076,
      "Ġdeals": 6077,
      "Ġobtain": 6078,
      "Ġsister": 6079,
      "point": 6080,
      "Ġsettings": 6081,
      "ĠClean": 6082,
      "EG": 6083,
      "Ġnom": 6084,
      "Ġgrade": 6085,
      "ĠMachine": 6086,
      "Ġfollows": 6087,
      "Ġinstructions": 6088,
      "ĠGar": 6089,
      "Ġproposed": 6090,
      "Ġtests": 6091,
      "!!!": 6092,
      "Ġstanding": 6093,
      "ĠKB": 6094,
      "hat": 6095,
      "merce": 6096,
      "Ġinterests": 6097,
      "Ġwel": 6098,
      "ĠLittle": 6099,
      "ca": 6100,
      "Ġ)": 6101,
      "ĠCopy": 6102,
      "Ġupper": 6103,
      "Ġflo": 6104,
      "Ġreduced": 6105,
      "ĠConf": 6106,
      "ĠAngeles": 6107,
      "ĠRussian": 6108,
      "anish": 6109,
      "Ġemployee": 6110,
      "ĠCast": 6111,
      "eper": 6112,
      "ĠPerform": 6113,
      "Ġid": 6114,
      "Ġdiscovered": 6115,
      "Ġregister": 6116,
      "Ġstre": 6117,
      "Ġfilter": 6118,
      "Ġequal": 6119,
      "Ġfiled": 6120,
      "Ġpromote": 6121,
      "Ġspeech": 6122,
      "Ġcitizens": 6123,
      "Ġreligious": 6124,
      "ĠInstead": 6125,
      "Ġcolumn": 6126,
      "eration": 6127,
      "Ġweak": 6128,
      "reens": 6129,
      "Ġconfidence": 6130,
      "aid": 6131,
      "Ġmal": 6132,
      "ĠKn": 6133,
      "Ġends": 6134,
      "oston": 6135,
      "Ġrandom": 6136,
      "Ġsole": 6137,
      "Ġdance": 6138,
      "Ġfreedom": 6139,
      "?âĢĿ": 6140,
      "ĠAC": 6141,
      "DS": 6142,
      "hew": 6143,
      "arp": 6144,
      "Ġchain": 6145,
      "Ġarrived": 6146,
      "Ġgreatest": 6147,
      "Ġstrategies": 6148,
      "Ġadults": 6149,
      "ĠVe": 6150,
      "related": 6151,
      "Ġbreast": 6152,
      "Ġcoord": 6153,
      "ĠJon": 6154,
      "Ġroof": 6155,
      "Ġterror": 6156,
      "ĠMartin": 6157,
      "ĠCond": 6158,
      "Ġconsumers": 6159,
      "Ġsad": 6160,
      "ĠBal": 6161,
      "rm": 6162,
      "Ġafternoon": 6163,
      "Ġworse": 6164,
      "iser": 6165,
      "ĠMeet": 6166,
      "Ġconsumer": 6167,
      "Ġacid": 6168,
      "ĠâĢĵĊ": 6169,
      "ani": 6170,
      "ĠTags": 6171,
      "arian": 6172,
      "Ġwal": 6173,
      "ownt": 6174,
      "Ġtea": 6175,
      "ĠVery": 6176,
      "ĠGra": 6177,
      "ucks": 6178,
      "Ġjoy": 6179,
      "Ġconsequ": 6180,
      "Ġissued": 6181,
      "ĠComple": 6182,
      "AV": 6183,
      "Ġresource": 6184,
      "ingly": 6185,
      "Ġbelong": 6186,
      "-n": 6187,
      "Ġforced": 6188,
      "road": 6189,
      "Ġcarried": 6190,
      "Ġoccasion": 6191,
      "Ġfly": 6192,
      "Ġsurgery": 6193,
      "ĠHaw": 6194,
      "Ġedition": 6195,
      "rastructure": 6196,
      "ĠRussia": 6197,
      "otton": 6198,
      "Ġvary": 6199,
      "Ġmotion": 6200,
      "gs": 6201,
      "ultural": 6202,
      "Ġpin": 6203,
      "Ġconcerned": 6204,
      "ighter": 6205,
      "Ġisland": 6206,
      "ĠFriend": 6207,
      "OO": 6208,
      "Ġimproved": 6209,
      "Ġviolence": 6210,
      "Ġcro": 6211,
      "Ġmut": 6212,
      "Ġenem": 6213,
      "Ġconstruct": 6214,
      "Ġbegins": 6215,
      "MA": 6216,
      "Ġcolour": 6217,
      "Ex": 6218,
      "ĠMid": 6219,
      "Ġblow": 6220,
      "Ġprepare": 6221,
      "ĠCharl": 6222,
      "Ġsyn": 6223,
      "ĠWrit": 6224,
      "ĠFour": 6225,
      "Ġpaying": 6226,
      "ĠProper": 6227,
      "Ġnucle": 6228,
      "Ġlights": 6229,
      "Ġlicense": 6230,
      "Ġtechnologies": 6231,
      "Ġlunch": 6232,
      "Ġtrouble": 6233,
      "itutions": 6234,
      "Ġguest": 6235,
      "ĠNeed": 6236,
      "ĠCross": 6237,
      "Ġdomain": 6238,
      "SE": 6239,
      "ĠYoung": 6240,
      "Ġtherapy": 6241,
      "Ġrow": 6242,
      "Ġflight": 6243,
      "ployment": 6244,
      "ĠFair": 6245,
      "ancer": 6246,
      "Ġmachines": 6247,
      "urban": 6248,
      "weet": 6249,
      "ĠEss": 6250,
      "Ġath": 6251,
      "Ġprison": 6252,
      "Ġreceiving": 6253,
      "Ġwearing": 6254,
      "Ġprotected": 6255,
      "elly": 6256,
      "ĠArts": 6257,
      "ĠHen": 6258,
      "Ġsac": 6259,
      "anges": 6260,
      "ĠHT": 6261,
      "Ġmanufacturing": 6262,
      "Ġchicken": 6263,
      "Ġcreation": 6264,
      "Ġtom": 6265,
      "Ġgather": 6266,
      "Ġlaunched": 6267,
      "Ġcheese": 6268,
      "can": 6269,
      "Ġbreakfast": 6270,
      "Ġchoices": 6271,
      "Ġphotograph": 6272,
      "Ġmur": 6273,
      "Ġsubstant": 6274,
      "Ġcentre": 6275,
      "ĠLink": 6276,
      "ĠChief": 6277,
      "elled": 6278,
      "Ġinn": 6279,
      "Ġemergency": 6280,
      "Ġstopped": 6281,
      "ĠSteel": 6282,
      "under": 6283,
      "apes": 6284,
      "ĠEasy": 6285,
      "Ġmeat": 6286,
      "away": 6287,
      "never": 6288,
      "Ġnine": 6289,
      "ĠHor": 6290,
      "ĠLin": 6291,
      "ella": 6292,
      "Ġboys": 6293,
      "Ġgro": 6294,
      "Ġresol": 6295,
      "ĠPrint": 6296,
      "hem": 6297,
      "Ġconfirm": 6298,
      "estyle": 6299,
      "Ġenable": 6300,
      "gend": 6301,
      "Ġmessages": 6302,
      "Ġadministr": 6303,
      "Ġfilms": 6304,
      "Ġrevenue": 6305,
      "ĠAsia": 6306,
      "Ġreliable": 6307,
      "ĠLee": 6308,
      "Ġbike": 6309,
      "Ġtast": 6310,
      "berry": 6311,
      "Ġrecorded": 6312,
      "âĢľ": 6313,
      "ĠCentre": 6314,
      "alse": 6315,
      "Ġboost": 6316,
      "lywood": 6317,
      "otal": 6318,
      "erts": 6319,
      "Ġbrands": 6320,
      "Ġbelief": 6321,
      "Ġran": 6322,
      "Ġcovers": 6323,
      "Ġunivers": 6324,
      "Ġcomplic": 6325,
      "Ġchief": 6326,
      "Ġdepart": 6327,
      "Ġclinical": 6328,
      "oking": 6329,
      "ĠMov": 6330,
      "ilit": 6331,
      "ĠRichard": 6332,
      "och": 6333,
      "Ġpray": 6334,
      "Ġjudge": 6335,
      "osite": 6336,
      "aded": 6337,
      "Ġshares": 6338,
      "Ġaid": 6339,
      "Ġpremium": 6340,
      "ĠParis": 6341,
      "Ġcutting": 6342,
      "Ġbringing": 6343,
      "igration": 6344,
      "iments": 6345,
      "osoph": 6346,
      "ĠArticle": 6347,
      "achel": 6348,
      "ĠLy": 6349,
      "Ġpractical": 6350,
      "ĠIra": 6351,
      "ĠJohnson": 6352,
      "Ġfields": 6353,
      "Ġsimpl": 6354,
      "Ġwarrant": 6355,
      "ĠPenn": 6356,
      "Ġjack": 6357,
      "Ġhundreds": 6358,
      "Ġinspired": 6359,
      "ait": 6360,
      "Ġleather": 6361,
      "ĠShould": 6362,
      "Ġauthority": 6363,
      "Ġodd": 6364,
      "Ġwitness": 6365,
      "Ġliquid": 6366,
      "Ġvirtual": 6367,
      "Ġsupports": 6368,
      "Ġtruck": 6369,
      "Ġtro": 6370,
      "Ġexecutive": 6371,
      "essed": 6372,
      "ĠMiddle": 6373,
      "arks": 6374,
      "irmed": 6375,
      "ĠFREE": 6376,
      "print": 6377,
      "alled": 6378,
      "Ġbowl": 6379,
      "ĠSat": 6380,
      "Ġtwice": 6381,
      "ĠPot": 6382,
      "ĠTherefore": 6383,
      "ĠComput": 6384,
      "Ġidentified": 6385,
      "Ġcoast": 6386,
      "Ġabuse": 6387,
      "life": 6388,
      "ĠFact": 6389,
      "LA": 6390,
      "eller": 6391,
      "ĠEnt": 6392,
      "Ġperfectly": 6393,
      "ĠConference": 6394,
      "Ġofficer": 6395,
      "-a": 6396,
      "Ġdraft": 6397,
      "ĠLibrary": 6398,
      "orough": 6399,
      "mosp": 6400,
      "Ġcomprehensive": 6401,
      "ĠArab": 6402,
      "Ġtopics": 6403,
      "kes": 6404,
      "ðŁ": 6405,
      "Â°": 6406,
      "Ġperspective": 6407,
      "pass": 6408,
      "Ġsymbol": 6409,
      "ĠThough": 6410,
      "Ġprotein": 6411,
      "ĠPoint": 6412,
      "ATE": 6413,
      "ĠÂ©": 6414,
      "rid": 6415,
      "erves": 6416,
      "ĠItalian": 6417,
      "Ġinterior": 6418,
      "Ġsupporting": 6419,
      "Ġauto": 6420,
      "Ġrac": 6421,
      "MP": 6422,
      "ĠSC": 6423,
      "Ġcrime": 6424,
      "Ġpurchased": 6425,
      "Ġcrisis": 6426,
      "ĠSteve": 6427,
      "Ġshock": 6428,
      "Ġjew": 6429,
      "anger": 6430,
      "Ġspeaking": 6431,
      "ĠDC": 6432,
      "Ġtreated": 6433,
      "Ġtelling": 6434,
      "ĠWebsite": 6435,
      "ĠCurrent": 6436,
      "Ġcooking": 6437,
      "ĠUt": 6438,
      "Ġcarbon": 6439,
      "Ġworldwide": 6440,
      "Ġexpression": 6441,
      "itionally": 6442,
      "ĠPhone": 6443,
      "Ġclothes": 6444,
      "ĠPac": 6445,
      "Ġdu": 6446,
      "Ġfort": 6447,
      "Ġsan": 6448,
      "ĠEmail": 6449,
      "Ø§": 6450,
      "Ġexternal": 6451,
      "Ġfoods": 6452,
      "Ġrelatively": 6453,
      "Ġeducational": 6454,
      "Ġeffectively": 6455,
      "eries": 6456,
      "Ġnone": 6457,
      "Ġec": 6458,
      "xx": 6459,
      "Ġimagine": 6460,
      "Ġfigures": 6461,
      "isters": 6462,
      "ĠSelect": 6463,
      "Ġdoors": 6464,
      "Ġdecades": 6465,
      "Ġchocolate": 6466,
      "ĠAgain": 6467,
      "Ġmere": 6468,
      "Ġengineering": 6469,
      "ĠCanadian": 6470,
      "Ġremaining": 6471,
      "ĠCR": 6472,
      "Ġconsidering": 6473,
      "Ġresearc": 6474,
      "OVID": 6475,
      "Ġrough": 6476,
      "ĠPH": 6477,
      "Ġaccepted": 6478,
      "ĠOS": 6479,
      "ĠSon": 6480,
      "Ġdish": 6481,
      "ĠDog": 6482,
      "stract": 6483,
      "Ġsheet": 6484,
      "ĠProm": 6485,
      "ĠSection": 6486,
      "comes": 6487,
      "ensity": 6488,
      "bur": 6489,
      "ĠBoston": 6490,
      "Ġvoc": 6491,
      "GB": 6492,
      "ĠBall": 6493,
      "ĠFinancial": 6494,
      "Ġbirthday": 6495,
      "Ġnurs": 6496,
      "Ġlit": 6497,
      "vell": 6498,
      "oga": 6499,
      "Ġagreed": 6500,
      "intage": 6501,
      "Ġfro": 6502,
      "Ġbread": 6503,
      "Ġvit": 6504,
      "Ġesc": 6505,
      "TR": 6506,
      "Ġmeal": 6507,
      "ĠVictor": 6508,
      "Ġgod": 6509,
      "Ġmatters": 6510,
      "-mail": 6511,
      "uing": 6512,
      "ĠMexico": 6513,
      "real": 6514,
      "Ġreturns": 6515,
      "ĠâĨ": 6516,
      "PC": 6517,
      "Ġkeeps": 6518,
      "icit": 6519,
      "Ġaccurate": 6520,
      "Ġemp": 6521,
      "ĠNumber": 6522,
      "roduction": 6523,
      "izer": 6524,
      "vy": 6525,
      "Ġperman": 6526,
      "Ġvacc": 6527,
      "ulty": 6528,
      "'Ċ": 6529,
      "ĠVan": 6530,
      "Ġspr": 6531,
      "Ġtut": 6532,
      "ĠDaily": 6533,
      "pot": 6534,
      "Ġparam": 6535,
      "Ġhighlight": 6536,
      "ĠVirginia": 6537,
      "Ġcircumstances": 6538,
      "ĠKen": 6539,
      "Ġpositions": 6540,
      "endar": 6541,
      "ĠStock": 6542,
      "Ġsurf": 6543,
      "ĠCase": 6544,
      "-qu": 6545,
      "-ch": 6546,
      "Ġentirely": 6547,
      "omy": 6548,
      "Ġusual": 6549,
      "acking": 6550,
      "Ġboat": 6551,
      "rum": 6552,
      "atre": 6553,
      "ĠIraq": 6554,
      "Ġsignificantly": 6555,
      "Ġfunny": 6556,
      "Ġsevere": 6557,
      "ĠFig": 6558,
      "Ġherself": 6559,
      "Ġcandidates": 6560,
      "ĠPract": 6561,
      "Ġmassive": 6562,
      "ĠPersonal": 6563,
      "lo": 6564,
      "Ġexcess": 6565,
      "Ġcompetitive": 6566,
      "oman": 6567,
      "Ġsilver": 6568,
      "Ġheight": 6569,
      "ĠCB": 6570,
      "lights": 6571,
      "cluded": 6572,
      "ĠWelcome": 6573,
      "Ġreasonable": 6574,
      "Ġcock": 6575,
      "Ġdangerous": 6576,
      "Ġinches": 6577,
      "erman": 6578,
      "ĠIran": 6579,
      "ĠUlt": 6580,
      "Ġforth": 6581,
      "ĠBon": 6582,
      "Ġchosen": 6583,
      "Ġaffordable": 6584,
      "uild": 6585,
      "Ġmini": 6586,
      "ĠTax": 6587,
      "Ġwealth": 6588,
      "Ġaffected": 6589,
      "ĠThus": 6590,
      "ĠServer": 6591,
      "Ġrestrict": 6592,
      "agon": 6593,
      "ĠNever": 6594,
      "Ġtag": 6595,
      "ailability": 6596,
      "Ġcharged": 6597,
      "Ġdestroy": 6598,
      "flow": 6599,
      "Ġappreciate": 6600,
      "ĠMur": 6601,
      "Ġhistorical": 6602,
      "Ġtab": 6603,
      "ĠJones": 6604,
      "ĠTraining": 6605,
      "Ġtrib": 6606,
      "iece": 6607,
      "TA": 6608,
      "ĠAustralian": 6609,
      "ĠMA": 6610,
      "Ġcycle": 6611,
      "Ġprocedure": 6612,
      "ĠProducts": 6613,
      "ĠHope": 6614,
      "adow": 6615,
      "Ġapartment": 6616,
      "Ġassets": 6617,
      "ey": 6618,
      "Ġicon": 6619,
      "water": 6620,
      "Ġregistration": 6621,
      "oval": 6622,
      "Ġcloser": 6623,
      "ĠExecutive": 6624,
      "Ġefficiency": 6625,
      "ĠMaterial": 6626,
      "ĠAri": 6627,
      "Ġbonus": 6628,
      "ĠTry": 6629,
      "ĠStore": 6630,
      "Ġrestaurants": 6631,
      "Ġscientific": 6632,
      "Ġexplained": 6633,
      "acked": 6634,
      "ression": 6635,
      "Ġbasket": 6636,
      "/S": 6637,
      "ĠPhys": 6638,
      "cknow": 6639,
      "Ġcorn": 6640,
      "ĠFL": 6641,
      "ĠFinally": 6642,
      "ĠStill": 6643,
      "ĠSometimes": 6644,
      "Get": 6645,
      "Ġcritic": 6646,
      "Ġ?": 6647,
      "ĠModel": 6648,
      "ĠSU": 6649,
      "Ġobtained": 6650,
      "Ġparticipants": 6651,
      "Ġben": 6652,
      "Ġtail": 6653,
      "Ġknowing": 6654,
      "ĠJoin": 6655,
      "ĠEs": 6656,
      "ulf": 6657,
      "ĠSpanish": 6658,
      "ban": 6659,
      "ĠSite": 6660,
      "Ġneighborhood": 6661,
      "Ġhook": 6662,
      "Ġarms": 6663,
      "ĠStudents": 6664,
      "ĠGeorg": 6665,
      "ikes": 6666,
      "-O": 6667,
      "Ġorganic": 6668,
      "Ġdrivers": 6669,
      "bal": 6670,
      "Ġphase": 6671,
      "Ġhardware": 6672,
      "ansion": 6673,
      "Ġsick": 6674,
      "Ġtrend": 6675,
      "Ġhorse": 6676,
      "prene": 6677,
      "Ġidentity": 6678,
      "lymp": 6679,
      "orders": 6680,
      "arrow": 6681,
      "Ġdelicious": 6682,
      "ĠShop": 6683,
      "Ġemphas": 6684,
      "Ġhate": 6685,
      "Ġguarantee": 6686,
      "Ġflash": 6687,
      "Ġsurprise": 6688,
      "apping": 6689,
      "Ġbuildings": 6690,
      "Ġpicked": 6691,
      "ĠStory": 6692,
      "ĠLine": 6693,
      "ixture": 6694,
      "Ġcommitment": 6695,
      "Ġbrowser": 6696,
      "Ġcandidate": 6697,
      "uction": 6698,
      "ras": 6699,
      "rig": 6700,
      "anna": 6701,
      "ĠCOM": 6702,
      "Ġlaugh": 6703,
      "Ġinnovative": 6704,
      "Ġcircuit": 6705,
      "ainless": 6706,
      "ĠTR": 6707,
      "ĠCarolina": 6708,
      "ĠExc": 6709,
      "Ġcommission": 6710,
      "Ġprocedures": 6711,
      "Ġobvious": 6712,
      "oty": 6713,
      "ĠCustomer": 6714,
      "Ġfolks": 6715,
      "Ġforest": 6716,
      "ĠSummer": 6717,
      "Ġconcrete": 6718,
      "Ġmissed": 6719,
      "ĠFarm": 6720,
      "ĠMade": 6721,
      "Ġvaluable": 6722,
      "cm": 6723,
      "Ġfacts": 6724,
      "reprene": 6725,
      "Ġcontrast": 6726,
      "hus": 6727,
      "ework": 6728,
      "utch": 6729,
      "Ġconvenient": 6730,
      "ĠWorks": 6731,
      "Ġmonthly": 6732,
      "oster": 6733,
      "orld": 6734,
      "ults": 6735,
      "Ġven": 6736,
      "ĠEX": 6737,
      "Ġalcohol": 6738,
      "Ġmedicine": 6739,
      "ĠCO": 6740,
      "No": 6741,
      "ĠRoyal": 6742,
      "Ġnegot": 6743,
      "ĠHeart": 6744,
      "-E": 6745,
      "Ġped": 6746,
      "Ġanx": 6747,
      "ĠPS": 6748,
      "Ġrevealed": 6749,
      "ĠTrust": 6750,
      "Ġprivacy": 6751,
      "Ġcriminal": 6752,
      "rick": 6753,
      "Ġelig": 6754,
      "ih": 6755,
      "ĠChair": 6756,
      "nam": 6757,
      "There": 6758,
      "Ġemployment": 6759,
      "stone": 6760,
      "Ġporn": 6761,
      "Ġnoticed": 6762,
      "irms": 6763,
      "Ġproviders": 6764,
      "Ġdegrees": 6765,
      "iors": 6766,
      "ĠProcess": 6767,
      "Ġplanned": 6768,
      "Ġdining": 6769,
      "Ġdefault": 6770,
      "va": 6771,
      "icing": 6772,
      "ĠYet": 6773,
      "Ġflowers": 6774,
      "oup": 6775,
      "Ġpowder": 6776,
      "ogue": 6777,
      "Ġobjects": 6778,
      "ĠLocal": 6779,
      "oosing": 6780,
      "ĠHaving": 6781,
      "ĠRecent": 6782,
      "Ġmining": 6783,
      "ĠBible": 6784,
      "Ġpresentation": 6785,
      "New": 6786,
      "greg": 6787,
      "ĠHon": 6788,
      "ĠColl": 6789,
      "emic": 6790,
      "Ġdelay": 6791,
      "nic": 6792,
      "Ġpharm": 6793,
      "rency": 6794,
      "Ġattrib": 6795,
      "ĠFac": 6796,
      "ĠArea": 6797,
      "Ġhousehold": 6798,
      "ĠFR": 6799,
      "ĠEll": 6800,
      "Ġhell": 6801,
      "Ġguard": 6802,
      "ĠManufact": 6803,
      "Ġinvestigation": 6804,
      "ĠFlash": 6805,
      "ubs": 6806,
      "Ġast": 6807,
      "Ġindeed": 6808,
      "Ġentertainment": 6809,
      "alle": 6810,
      "Ġcounty": 6811,
      "ĠConnect": 6812,
      "ĠMuslim": 6813,
      "Ġbear": 6814,
      "ĠWilliams": 6815,
      "ĠSE": 6816,
      "ĠEnvironment": 6817,
      "othe": 6818,
      "Ġpatterns": 6819,
      "Ġvari": 6820,
      "orable": 6821,
      "ĠSilver": 6822,
      "Ġinvolve": 6823,
      "Ġextended": 6824,
      "ĠFoot": 6825,
      "Ġexpertise": 6826,
      "Ġentered": 6827,
      "Ġglad": 6828,
      "Com": 6829,
      "ĠProfessional": 6830,
      "Ġattacks": 6831,
      "Ġsauce": 6832,
      "Is": 6833,
      "Ġextract": 6834,
      "Ġcrazy": 6835,
      "Ġfeatured": 6836,
      "Ġcomponent": 6837,
      "....Ċ": 6838,
      "Ġresolution": 6839,
      "illy": 6840,
      "Ġfrequently": 6841,
      "Ġcapable": 6842,
      "umps": 6843,
      "west": 6844,
      "inos": 6845,
      "rip": 6846,
      "rate": 6847,
      "ĠUnf": 6848,
      "Ġindex": 6849,
      "lete": 6850,
      "acc": 6851,
      "olar": 6852,
      "liance": 6853,
      "ĠBuilding": 6854,
      "enced": 6855,
      "rible": 6856,
      "Ġreput": 6857,
      "Ġinvent": 6858,
      "ĠVers": 6859,
      "Ġwet": 6860,
      "Ġexec": 6861,
      "bar": 6862,
      "ĠProdu": 6863,
      "col": 6864,
      "Ġowned": 6865,
      "Ġgrown": 6866,
      "Ġatmosp": 6867,
      "Ġforum": 6868,
      "Ġriver": 6869,
      "ĠHappy": 6870,
      "Ġwalls": 6871,
      "ĠShort": 6872,
      "Ġholds": 6873,
      "Ġveter": 6874,
      "Ġcake": 6875,
      "ura": 6876,
      "ĠItaly": 6877,
      "Ġstudio": 6878,
      ".âĢĻ": 6879,
      "Ġcrew": 6880,
      "Ġtypical": 6881,
      "ĠTurn": 6882,
      "Ġhouses": 6883,
      "Ġrecording": 6884,
      "Ġfulf": 6885,
      "Ġworst": 6886,
      "Ġhappening": 6887,
      "Ġdepress": 6888,
      "Ġcable": 6889,
      "Ġroute": 6890,
      "ĠKitchen": 6891,
      "Ġille": 6892,
      "ĠQuality": 6893,
      "Ġtasks": 6894,
      "Ġdisappoint": 6895,
      "Ġmagazine": 6896,
      "Ġmixed": 6897,
      "ĠLiving": 6898,
      "Ġbab": 6899,
      "Ġmoments": 6900,
      "Ġagencies": 6901,
      "enger": 6902,
      "Ġpublish": 6903,
      "host": 6904,
      "Ġrenew": 6905,
      "ORE": 6906,
      "Ġturning": 6907,
      "awn": 6908,
      "As": 6909,
      "astern": 6910,
      "Ġprompt": 6911,
      "Ġtickets": 6912,
      "Ġtaught": 6913,
      "ĠDie": 6914,
      "ĠSystems": 6915,
      "Ġunlike": 6916,
      "eding": 6917,
      "Ġextensive": 6918,
      "stal": 6919,
      "ĠCharles": 6920,
      "Ġchapter": 6921,
      ".co": 6922,
      "Ġcompens": 6923,
      "Ġcute": 6924,
      "ĠDespite": 6925,
      "Ġparticipate": 6926,
      "Ġgear": 6927,
      "ĠPak": 6928,
      "rooms": 6929,
      "ĠTele": 6930,
      "oral": 6931,
      "ĠColumb": 6932,
      "Ġconducted": 6933,
      "onymous": 6934,
      "Ġyellow": 6935,
      "ingu": 6936,
      "Ġemotional": 6937,
      "ospit": 6938,
      "ĠAndrew": 6939,
      "Ġdepth": 6940,
      "Ġsin": 6941,
      "ĠStone": 6942,
      "urable": 6943,
      "Ġrear": 6944,
      "Ġshower": 6945,
      "ĠMean": 6946,
      "ta": 6947,
      "bi": 6948,
      "ĠAvailable": 6949,
      "Ġloves": 6950,
      "ĠOlymp": 6951,
      "ĠAge": 6952,
      "cling": 6953,
      "asters": 6954,
      "Ġexclusive": 6955,
      "Ġinstitutions": 6956,
      "Ġincredible": 6957,
      "Ġexecut": 6958,
      "ĠCirc": 6959,
      "ĠJackson": 6960,
      "Ġpapers": 6961,
      "zer": 6962,
      "ĠCrusher": 6963,
      "Ġofficers": 6964,
      "Ġfighting": 6965,
      "Tube": 6966,
      "ĠSmart": 6967,
      "Ġsizes": 6968,
      "ĠSep": 6969,
      "ificate": 6970,
      "Ġconstantly": 6971,
      "ERE": 6972,
      "ĠAp": 6973,
      "ĠRegist": 6974,
      "ĠHospital": 6975,
      "inem": 6976,
      "Ġfeaturing": 6977,
      "Ġsky": 6978,
      "ographic": 6979,
      "At": 6980,
      "Ġshooting": 6981,
      "ĠUser": 6982,
      "Ġtrig": 6983,
      "Ġdomestic": 6984,
      "ba": 6985,
      "ĠMess": 6986,
      "ĠCategory": 6987,
      "AND": 6988,
      "Ġdistinct": 6989,
      "ĠFestival": 6990,
      "ĠCountry": 6991,
      "ĠDE": 6992,
      "gypt": 6993,
      "Ġthin": 6994,
      "Ġrecognized": 6995,
      "ĠFort": 6996,
      "Ġvillage": 6997,
      "âĦ": 6998,
      "ĠAcademy": 6999,
      "Ġregularly": 7000,
      "ĠAutom": 7001,
      ".s": 7002,
      "And": 7003,
      "ĠNEW": 7004,
      "ĠÐ": 7005,
      "ĠAsh": 7006,
      "Ġcarefully": 7007,
      "ĠSenior": 7008,
      "Ġassessment": 7009,
      "ĠSpace": 7010,
      "Ġinteg": 7011,
      "Ġinvestors": 7012,
      "ls": 7013,
      "Ġdiscussed": 7014,
      "ĠFrancisco": 7015,
      "ĠTreat": 7016,
      "Ġpayments": 7017,
      "lines": 7018,
      "Ġadvoc": 7019,
      "ĠHun": 7020,
      "Ġmillions": 7021,
      "Ġinfrastructure": 7022,
      "nger": 7023,
      "pret": 7024,
      "ĠSave": 7025,
      "AA": 7026,
      "Ġconvention": 7027,
      "Ġvisiting": 7028,
      "çļ": 7029,
      "icial": 7030,
      "Ġtou": 7031,
      "ĠBath": 7032,
      "lyn": 7033,
      "ĠQuick": 7034,
      "eler": 7035,
      "Ġreporting": 7036,
      "ĠLeg": 7037,
      "Ġrail": 7038,
      "ĠSpirit": 7039,
      "Ġsubmit": 7040,
      "Ġgrab": 7041,
      "Ġtiss": 7042,
      "ansas": 7043,
      "aturally": 7044,
      "Ġskill": 7045,
      "ĠScot": 7046,
      "Ġlosing": 7047,
      "uls": 7048,
      "Ġstands": 7049,
      "uine": 7050,
      "Ġsolar": 7051,
      "âĢĶâĢĶ": 7052,
      "Ġbanks": 7053,
      "Ã¼": 7054,
      "Ġtaxes": 7055,
      "ĠBul": 7056,
      "ogen": 7057,
      "ĠUr": 7058,
      "-W": 7059,
      "ista": 7060,
      "Ġpassword": 7061,
      "Ġweekly": 7062,
      "Ĥ¬": 7063,
      "Ġstorm": 7064,
      "ĠSex": 7065,
      "umes": 7066,
      "/d": 7067,
      "Ġaccord": 7068,
      "ensed": 7069,
      "Ġwinner": 7070,
      "Ġtank": 7071,
      "igned": 7072,
      "Ġacknow": 7073,
      "ĠEU": 7074,
      "bles": 7075,
      "urse": 7076,
      "ĠSubscribe": 7077,
      "Ġlad": 7078,
      "ĠIre": 7079,
      "Ġfellow": 7080,
      "Ġpill": 7081,
      "Ġprepar": 7082,
      "CD": 7083,
      "Ġmainly": 7084,
      "Ġstatements": 7085,
      "Ġincreases": 7086,
      ".net": 7087,
      "ĠLooking": 7088,
      "eware": 7089,
      "Ġstim": 7090,
      "Ġauthent": 7091,
      "Ġresistance": 7092,
      "Ġtomorrow": 7093,
      "Ġreform": 7094,
      "Ġimpossible": 7095,
      "idays": 7096,
      "ĠLevel": 7097,
      "Ġfacing": 7098,
      "ĠRose": 7099,
      "ĠEnjoy": 7100,
      "iano": 7101,
      "Ġguitar": 7102,
      "liers": 7103,
      "ĠRay": 7104,
      "ĠSecretary": 7105,
      "ĠCOVID": 7106,
      "Ġjustice": 7107,
      "Ġnative": 7108,
      "ĠSafety": 7109,
      "Ġreferred": 7110,
      "Ġbelieved": 7111,
      "ĠEN": 7112,
      "ĠMir": 7113,
      "ĠGarden": 7114,
      "PM": 7115,
      "lements": 7116,
      "çļĦ": 7117,
      "ĠRights": 7118,
      "ĠPut": 7119,
      "Ġcoal": 7120,
      "tain": 7121,
      "zil": 7122,
      "forcement": 7123,
      "Ġnetworks": 7124,
      "Ġdifferences": 7125,
      "].": 7126,
      "ĠPen": 7127,
      "My": 7128,
      "Ġproof": 7129,
      "ĠPin": 7130,
      "Ġancient": 7131,
      "Ġagents": 7132,
      "ĠSus": 7133,
      "Ġpil": 7134,
      "Ġbes": 7135,
      "Ġkne": 7136,
      "Ġintegrated": 7137,
      "Ġempt": 7138,
      "Ġsuggested": 7139,
      "Ġoriginally": 7140,
      "arat": 7141,
      "CR": 7142,
      "arry": 7143,
      "ĠEngineering": 7144,
      "Ġsight": 7145,
      "onna": 7146,
      "alysis": 7147,
      "Ġregulations": 7148,
      "Ġinstitution": 7149,
      "ĠKim": 7150,
      "ĠPaper": 7151,
      "ĠNatural": 7152,
      "Ġargument": 7153,
      "tle": 7154,
      "Ġupcoming": 7155,
      "à¹": 7156,
      "Ġdebate": 7157,
      "Ġdelight": 7158,
      "ennis": 7159,
      "ĠBE": 7160,
      "ĠLuc": 7161,
      "Ġhurt": 7162,
      "ĠInsurance": 7163,
      "Ġattached": 7164,
      "Ġordered": 7165,
      "ĠSher": 7166,
      "Ġcookies": 7167,
      "Sh": 7168,
      "Ġmac": 7169,
      "ĠFall": 7170,
      "ĠPow": 7171,
      "ĠRun": 7172,
      "ĠLED": 7173,
      "ĠReading": 7174,
      "Ġeveryday": 7175,
      "ĠDO": 7176,
      "Ġadm": 7177,
      "Ġgolf": 7178,
      "ĠBaby": 7179,
      "ĠFar": 7180,
      "Ġwash": 7181,
      "Ġbottle": 7182,
      "Ġseriously": 7183,
      "Ġmob": 7184,
      "Ġsituations": 7185,
      "ĠCL": 7186,
      "ĠBang": 7187,
      "ĠApplication": 7188,
      "ns": 7189,
      "----------------": 7190,
      "ĠClin": 7191,
      "athe": 7192,
      "ĠSenate": 7193,
      "ĠComment": 7194,
      "ĠMichigan": 7195,
      "iki": 7196,
      "epend": 7197,
      "iana": 7198,
      "Ġmountain": 7199,
      "Ġimprovement": 7200,
      "odcast": 7201,
      "you": 7202,
      "ĠOhio": 7203,
      "âĦ¢": 7204,
      "ĠCoast": 7205,
      "Ġfo": 7206,
      "Ġpainting": 7207,
      "ĠCut": 7208,
      "Ġpersons": 7209,
      "Ġroutine": 7210,
      "Ġsurrounding": 7211,
      "Ġrating": 7212,
      "orters": 7213,
      "FC": 7214,
      "Ġregional": 7215,
      "ĠChapter": 7216,
      "Ġhall": 7217,
      "Ġletters": 7218,
      "Ġpolitics": 7219,
      "izz": 7220,
      "anche": 7221,
      "Ġgrew": 7222,
      "Ġvictory": 7223,
      "esh": 7224,
      "Ġlighting": 7225,
      "ĠArmy": 7226,
      "Ġauthors": 7227,
      "rition": 7228,
      "Ġprove": 7229,
      "For": 7230,
      "Ġamend": 7231,
      "osc": 7232,
      "VER": 7233,
      "pat": 7234,
      "Ġunable": 7235,
      "ĠCredit": 7236,
      "Ġ:Ċ": 7237,
      "Ã³": 7238,
      "Ġsmile": 7239,
      "ington": 7240,
      "Ġfairly": 7241,
      "ĠText": 7242,
      "ĠChampions": 7243,
      "ĠFed": 7244,
      "Ġwest": 7245,
      "Ġol": 7246,
      "ether": 7247,
      "ĠFile": 7248,
      "entle": 7249,
      "Ġrisks": 7250,
      "Ġsurprised": 7251,
      "Ġtiny": 7252,
      "ups": 7253,
      "Ġsufficient": 7254,
      "Pad": 7255,
      "Ġconvert": 7256,
      "Ġcontemporary": 7257,
      "Ġrein": 7258,
      "folio": 7259,
      "Ġreplacement": 7260,
      "ĠThink": 7261,
      "Ġgenerate": 7262,
      "ĠMrs": 7263,
      "ĠEffect": 7264,
      "ĠStandard": 7265,
      "mail": 7266,
      "ĠDaniel": 7267,
      "Ġerr": 7268,
      "ĠSS": 7269,
      "Ġkm": 7270,
      "ĠWeight": 7271,
      "inity": 7272,
      "Ġdates": 7273,
      "Ġplanet": 7274,
      "raction": 7275,
      "ĠJava": 7276,
      "Ġhang": 7277,
      "ĠDark": 7278,
      "ĠNick": 7279,
      "ĠSky": 7280,
      "ĠSouthern": 7281,
      "Ġsuccessfully": 7282,
      "ja": 7283,
      "Ġdump": 7284,
      "Ġmonitoring": 7285,
      "Ġtalent": 7286,
      "Ġconfirmed": 7287,
      "Ġstretch": 7288,
      "ĠJewish": 7289,
      "ĠSanta": 7290,
      "abetes": 7291,
      "ells": 7292,
      "HT": 7293,
      "Ġsupplies": 7294,
      "Ġwidely": 7295,
      "Ġoperate": 7296,
      "Ġmanufacturers": 7297,
      "Ġvacation": 7298,
      "Ġcooper": 7299,
      "ĠSuch": 7300,
      "ĠJenn": 7301,
      "Ġcommittee": 7302,
      "BI": 7303,
      "Ġdescribe": 7304,
      "/c": 7305,
      "ĠAuto": 7306,
      "ĠDrive": 7307,
      "Ġrealized": 7308,
      "sters": 7309,
      "Ġfalse": 7310,
      "ĠDisney": 7311,
      "ifies": 7312,
      "ĠEgypt": 7313,
      "-out": 7314,
      "Ġvast": 7315,
      "Ġbeer": 7316,
      "Ġreader": 7317,
      "Ġdesigner": 7318,
      "Ġspin": 7319,
      "Ġads": 7320,
      "Ġtechnique": 7321,
      "Ġmusical": 7322,
      "Ġticket": 7323,
      "aze": 7324,
      "ĠPict": 7325,
      "Ġslowly": 7326,
      "Ġconsistent": 7327,
      "Ġteeth": 7328,
      "Ġanyway": 7329,
      "aints": 7330,
      "Ġtested": 7331,
      "ĠRo": 7332,
      "asts": 7333,
      "obby": 7334,
      "ĠNO": 7335,
      "Ġpossibility": 7336,
      "ĠKingdom": 7337,
      "ĠBush": 7338,
      "?\"": 7339,
      "Ġlegs": 7340,
      "Ġvotes": 7341,
      "Ġreaction": 7342,
      "ĠRam": 7343,
      "Ġengage": 7344,
      "ico": 7345,
      "iti": 7346,
      "bing": 7347,
      "outer": 7348,
      "Ġbare": 7349,
      "ĠJustice": 7350,
      "claim": 7351,
      "Ġtwe": 7352,
      "Ġphen": 7353,
      "ĠPlant": 7354,
      "etry": 7355,
      "grad": 7356,
      "ĠCommon": 7357,
      "Ġadds": 7358,
      "Ġduty": 7359,
      "Bl": 7360,
      "Ġunderst": 7361,
      "ĠBooks": 7362,
      "Ġcampus": 7363,
      "earing": 7364,
      "ĠRepublican": 7365,
      "Ġbasically": 7366,
      "Ġabsor": 7367,
      "Ġleague": 7368,
      ".M": 7369,
      "Ġrental": 7370,
      "ĠEvent": 7371,
      "ILL": 7372,
      "uster": 7373,
      "ĠUnfortunately": 7374,
      "stream": 7375,
      "ĠImage": 7376,
      "Ġtransition": 7377,
      "ĠCatholic": 7378,
      "orgeous": 7379,
      "Ġdefinition": 7380,
      "Ġhealthcare": 7381,
      "-com": 7382,
      "resents": 7383,
      "Ġexposure": 7384,
      "ĠJac": 7385,
      "Ġattorney": 7386,
      "ĠKar": 7387,
      "olec": 7388,
      "Ġtrail": 7389,
      "ĠPL": 7390,
      "Ġmeetings": 7391,
      "uling": 7392,
      "ĠUSB": 7393,
      "Ġcontest": 7394,
      "annels": 7395,
      "ĠMember": 7396,
      "owntown": 7397,
      "Ġexceed": 7398,
      "Ġbodies": 7399,
      "asant": 7400,
      "Ġconstant": 7401,
      "Ġnormally": 7402,
      ".P": 7403,
      "Ġclothing": 7404,
      "ĠSea": 7405,
      "Ã¤": 7406,
      "Ġversions": 7407,
      "Ġgay": 7408,
      "irts": 7409,
      "Ġwalked": 7410,
      "Ġsubsequ": 7411,
      "iag": 7412,
      "Ġsuc": 7413,
      "Ġreward": 7414,
      "Ġexpectations": 7415,
      "Ġstored": 7416,
      "aylor": 7417,
      "ĠJersey": 7418,
      "Ġzone": 7419,
      "ĠBeing": 7420,
      "Ġyounger": 7421,
      "Ġimplementation": 7422,
      "Ġlistening": 7423,
      "Ġsaved": 7424,
      "Ġflour": 7425,
      "Ġslot": 7426,
      "Ġrelief": 7427,
      "Ġembodiment": 7428,
      "writ": 7429,
      "cue": 7430,
      "ĠCover": 7431,
      "ĠVill": 7432,
      "Con": 7433,
      "Ġscheduled": 7434,
      "etime": 7435,
      "Ġlapt": 7436,
      "Ġauthorities": 7437,
      "Ġmand": 7438,
      "Ġtum": 7439,
      "Ġchallenging": 7440,
      "ĠTech": 7441,
      "Ġspiritual": 7442,
      "ĠProfessor": 7443,
      "Ġclimb": 7444,
      "Ġfoundation": 7445,
      "Ġathlet": 7446,
      "Ġcomparison": 7447,
      "ĠAsk": 7448,
      "/A": 7449,
      "Ġshift": 7450,
      "Ġhat": 7451,
      "ĠTag": 7452,
      "ĠAsian": 7453,
      "ĠPakistan": 7454,
      "Ġvul": 7455,
      "Ġretire": 7456,
      "da": 7457,
      "ĠHas": 7458,
      "Ġbreath": 7459,
      "Ġhur": 7460,
      "Ġinch": 7461,
      "TC": 7462,
      "ĠOwn": 7463,
      "Ġdivid": 7464,
      "Ġluxury": 7465,
      "-like": 7466,
      "Ġtall": 7467,
      "Ġmoist": 7468,
      "Ġentr": 7469,
      "Ġhidden": 7470,
      "Ġimpressive": 7471,
      "Ġenthus": 7472,
      "Ġages": 7473,
      "Ġfle": 7474,
      "win": 7475,
      "inton": 7476,
      "ati": 7477,
      "ĠKids": 7478,
      "Ġquote": 7479,
      "Ġstyles": 7480,
      "\".Ċ": 7481,
      "Ġpersonally": 7482,
      "Ġmoves": 7483,
      "itage": 7484,
      "Ġscan": 7485,
      "ĠDivision": 7486,
      "Ġfasc": 7487,
      "Ġbutt": 7488,
      "Ġcos": 7489,
      "isms": 7490,
      "Ġresulting": 7491,
      "ĠHim": 7492,
      "ucky": 7493,
      "-related": 7494,
      "ĠWould": 7495,
      "Ġeleg": 7496,
      "Ġlie": 7497,
      "Ġterr": 7498,
      "amber": 7499,
      "Ġserves": 7500,
      "wing": 7501,
      "-off": 7502,
      ".uk": 7503,
      "ART": 7504,
      "Ġmm": 7505,
      "athan": 7506,
      "leep": 7507,
      "Ġnoise": 7508,
      "Ġcreates": 7509,
      "Ġpassing": 7510,
      "Ġhonor": 7511,
      "ĠHold": 7512,
      "Ġairport": 7513,
      "ĠModern": 7514,
      "teen": 7515,
      "ĠRadio": 7516,
      "Ġaccessible": 7517,
      "Ġlinked": 7518,
      "Ġdesired": 7519,
      "Ġease": 7520,
      "Ġtor": 7521,
      "Ġprinciples": 7522,
      "Ġreligion": 7523,
      "Ġbags": 7524,
      "ĠCand": 7525,
      "quir": 7526,
      "ĠDI": 7527,
      "ĠBad": 7528,
      "ĠDress": 7529,
      "Ġhire": 7530,
      "ĠLiber": 7531,
      "Ġfinds": 7532,
      "HS": 7533,
      "elry": 7534,
      "ĠExpress": 7535,
      "Ġelev": 7536,
      "ITY": 7537,
      "Ġgifts": 7538,
      "ashed": 7539,
      "anguages": 7540,
      "Ġnuclear": 7541,
      "eters": 7542,
      "Ġresearchers": 7543,
      "Ġconflict": 7544,
      "ĠFord": 7545,
      "Ġnearby": 7546,
      "ĠSeason": 7547,
      "Ġrepresents": 7548,
      "Ġinstrument": 7549,
      "ĠEric": 7550,
      "Ġinner": 7551,
      "ĠRyan": 7552,
      "Ġoven": 7553,
      "Ġforever": 7554,
      "Ġdirected": 7555,
      "ĠInstagram": 7556,
      "Ġawareness": 7557,
      "ĠVisit": 7558,
      "Ġincident": 7559,
      "Ġhole": 7560,
      "ĠSimilar": 7561,
      "ĠExperience": 7562,
      "Ġ|Ċ": 7563,
      "oir": 7564,
      "Ġcounsel": 7565,
      "Ġdropped": 7566,
      "ĠWant": 7567,
      "Ġadvis": 7568,
      "ĠCN": 7569,
      "ĠFox": 7570,
      "Ġpenal": 7571,
      "ĠIreland": 7572,
      "apped": 7573,
      "Ġthorough": 7574,
      "Ġroot": 7575,
      "Ġsusp": 7576,
      "ĠShipping": 7577,
      "-N": 7578,
      "ĠField": 7579,
      "oto": 7580,
      "Ġongoing": 7581,
      "Ġscholars": 7582,
      "ontin": 7583,
      "!!Ċ": 7584,
      "Ġbat": 7585,
      "Ġborder": 7586,
      "Ġrose": 7587,
      "ĠSav": 7588,
      "ĠGM": 7589,
      "Ġmuscle": 7590,
      "QL": 7591,
      "Ġtip": 7592,
      "ĠMix": 7593,
      "that": 7594,
      "aper": 7595,
      "à¥": 7596,
      "ĠPur": 7597,
      "ĠCP": 7598,
      "Ġpulled": 7599,
      "ĠFather": 7600,
      "Ġspoke": 7601,
      "/C": 7602,
      "Ġarts": 7603,
      "OG": 7604,
      "Ġearned": 7605,
      "Ġobviously": 7606,
      "ĠWi": 7607,
      "Ġdiverse": 7608,
      "ĠContent": 7609,
      "bra": 7610,
      "missions": 7611,
      "ĠED": 7612,
      "Ġsessions": 7613,
      "Ġdeposit": 7614,
      "ournament": 7615,
      "ĠBody": 7616,
      "Ġdemocr": 7617,
      "Ġwriters": 7618,
      "Ġestimated": 7619,
      "Ġcontrols": 7620,
      "Ġ>>": 7621,
      "amps": 7622,
      "Ġrecognize": 7623,
      "ĠRen": 7624,
      "Ġinstruct": 7625,
      "Ġpreferred": 7626,
      "oft": 7627,
      "ĠRon": 7628,
      "Ġgenerated": 7629,
      "Ġwithd": 7630,
      "Ġdust": 7631,
      "Ġsearching": 7632,
      "On": 7633,
      "ĠRod": 7634,
      "ĠMoney": 7635,
      "Ġdealing": 7636,
      "athy": 7637,
      "?âĢĿĊ": 7638,
      "Ġphilosoph": 7639,
      "Ġdispos": 7640,
      "Ġoutstanding": 7641,
      "hire": 7642,
      "Ġfeelings": 7643,
      "stery": 7644,
      "uan": 7645,
      "UD": 7646,
      "iform": 7647,
      "ĠPerhaps": 7648,
      "Ġpink": 7649,
      "Ġevil": 7650,
      "ĠEdition": 7651,
      "Ġorganized": 7652,
      "Ġadventure": 7653,
      "Ġdrawing": 7654,
      "Ġimmediate": 7655,
      "Ġpleasure": 7656,
      "/Ċ": 7657,
      "ĠIdeas": 7658,
      "agues": 7659,
      "ĠCreate": 7660,
      "Ġsucceed": 7661,
      "Ġwarn": 7662,
      "Ġextent": 7663,
      "Ġdecade": 7664,
      "Ġclosely": 7665,
      "Ġalleged": 7666,
      "ĠLearning": 7667,
      "Ġtack": 7668,
      "ding": 7669,
      "rell": 7670,
      "ĠRemember": 7671,
      "uting": 7672,
      "bel": 7673,
      "Ġtalks": 7674,
      "Ġisol": 7675,
      "Ġlessons": 7676,
      "Ġnob": 7677,
      "Ġsuperv": 7678,
      "ĠStaff": 7679,
      "Ġmagic": 7680,
      "Ġsubmitted": 7681,
      "Ġfacilit": 7682,
      "ĠGeorgia": 7683,
      "ellect": 7684,
      "Ġtrends": 7685,
      "ĠAB": 7686,
      "raid": 7687,
      "rage": 7688,
      "Ġsomewhere": 7689,
      "Ġspaces": 7690,
      "ĠKat": 7691,
      "Ġlifestyle": 7692,
      "onto": 7693,
      "Don": 7694,
      "Ġdynamic": 7695,
      "Ġsynt": 7696,
      "Ġprecise": 7697,
      "Ġtur": 7698,
      "ĠThings": 7699,
      "Ġwireless": 7700,
      "Ġheads": 7701,
      "Ġpleased": 7702,
      "Ġrecipes": 7703,
      "ĠRa": 7704,
      "ĠCopyright": 7705,
      "ĠDam": 7706,
      "illiant": 7707,
      "Ġcategories": 7708,
      "tes": 7709,
      "ĠPo": 7710,
      "yers": 7711,
      "Ġflexible": 7712,
      "Ġguidance": 7713,
      "ĠMethod": 7714,
      "ĠCro": 7715,
      "Ġsomewhat": 7716,
      "ĠInterest": 7717,
      "Ġpromise": 7718,
      "sm": 7719,
      "Ġentit": 7720,
      "RS": 7721,
      "Ġaside": 7722,
      "Ġurban": 7723,
      "ĠHoly": 7724,
      "Ġcollected": 7725,
      "Ġhoping": 7726,
      "Ġclar": 7727,
      "acter": 7728,
      "ĠColorado": 7729,
      "Ġà¤": 7730,
      "Ġaccessories": 7731,
      "Ġsoil": 7732,
      "Ġcelebrate": 7733,
      "ĠStyle": 7734,
      "Ġtrick": 7735,
      "Ġhosting": 7736,
      "Ġcapture": 7737,
      "ĠFront": 7738,
      "Ġapproval": 7739,
      "Ġtonight": 7740,
      "Ġclock": 7741,
      "Ġprimarily": 7742,
      "Ġraw": 7743,
      "Ġinnovation": 7744,
      "Ġmixture": 7745,
      "Ġhits": 7746,
      "Ġlets": 7747,
      "Ġreplaced": 7748,
      "Ġinformed": 7749,
      "ĠCra": 7750,
      "Ġperforming": 7751,
      "liam": 7752,
      "Ġatmosphere": 7753,
      "âĢĿ.Ċ": 7754,
      "ĠMedicine": 7755,
      "Ġstring": 7756,
      "ĠOK": 7757,
      "Ġexpressed": 7758,
      "Ġreduction": 7759,
      "ĠCru": 7760,
      "Ġstrange": 7761,
      "ione": 7762,
      "Ġcoc": 7763,
      "Ġdestination": 7764,
      "ĠPsych": 7765,
      "Ġopposite": 7766,
      "gor": 7767,
      "ĠLA": 7768,
      "Ġsolve": 7769,
      "ĠDream": 7770,
      "ĠJoseph": 7771,
      "isa": 7772,
      "Ġacts": 7773,
      "Ġwave": 7774,
      "Ġanticip": 7775,
      "Ġly": 7776,
      "iami": 7777,
      "ĠDar": 7778,
      "igs": 7779,
      "ĠPA": 7780,
      "Ġpartnership": 7781,
      "ĠPolit": 7782,
      "''": 7783,
      "ila": 7784,
      "ĠWithout": 7785,
      "ĠUk": 7786,
      "Ġcommunications": 7787,
      "ĠMembers": 7788,
      "ĠCollection": 7789,
      "Ġtech": 7790,
      "ĠCorporation": 7791,
      ".The": 7792,
      "ĠStudent": 7793,
      "Ġflood": 7794,
      "Ġpra": 7795,
      "Ġcharm": 7796,
      "Ġhumans": 7797,
      "ĠAction": 7798,
      "ĠPacific": 7799,
      "ĠLinks": 7800,
      "Ġcontrolled": 7801,
      "Ġgraduate": 7802,
      "Ġfavourite": 7803,
      "itable": 7804,
      "Ġeggs": 7805,
      "Ġweapons": 7806,
      "ounce": 7807,
      "Ġeast": 7808,
      "Ġlogo": 7809,
      "ĠToy": 7810,
      "rog": 7811,
      "Ġvital": 7812,
      "Ġequival": 7813,
      "Ġtub": 7814,
      "Ġinsert": 7815,
      "ĠIss": 7816,
      "Ġgrass": 7817,
      "Ġtracks": 7818,
      "ĠBrazil": 7819,
      "RL": 7820,
      "ĠConsult": 7821,
      "Âł": 7822,
      "Ġupload": 7823,
      "ĠAdministration": 7824,
      "Ġsuggests": 7825,
      "GE": 7826,
      "Ġnarr": 7827,
      "ĠQueen": 7828,
      "ĠEth": 7829,
      "Ġham": 7830,
      "iversary": 7831,
      "ĠStudies": 7832,
      "Ġstreets": 7833,
      "Ġconserv": 7834,
      "anny": 7835,
      "Ġelectrical": 7836,
      "riendly": 7837,
      "ĠLind": 7838,
      "Ġintelligence": 7839,
      "ĠKenn": 7840,
      "Ġtalked": 7841,
      "Ġremark": 7842,
      "aping": 7843,
      "Ġvend": 7844,
      "Ġinspiration": 7845,
      "Ġcompat": 7846,
      "ĠVeg": 7847,
      "ĠCry": 7848,
      "Ġultimate": 7849,
      "ĠHarr": 7850,
      "sung": 7851,
      "Ġtwenty": 7852,
      "ĠTru": 7853,
      "Ġnecessarily": 7854,
      "ĠRand": 7855,
      "Ġpul": 7856,
      "stein": 7857,
      "oured": 7858,
      "Ġphr": 7859,
      "hell": 7860,
      "ĠFlow": 7861,
      "ĠCapt": 7862,
      "Ġsuspect": 7863,
      "Ġamounts": 7864,
      "ĠMD": 7865,
      "zing": 7866,
      "Ġfishing": 7867,
      "ĠAwards": 7868,
      "vas": 7869,
      "ĠHou": 7870,
      "ĠBroad": 7871,
      "Ġexperiment": 7872,
      "Ġstunning": 7873,
      "ĠTitle": 7874,
      "Ġlucky": 7875,
      "Ġqualified": 7876,
      "Un": 7877,
      "ĠAnsw": 7878,
      "Ġsending": 7879,
      "ordan": 7880,
      "Ġinstant": 7881,
      "Ġappointment": 7882,
      "liament": 7883,
      "ĠMotor": 7884,
      "eling": 7885,
      "Ġles": 7886,
      "ĠLabor": 7887,
      "Ġrelative": 7888,
      "anned": 7889,
      "uct": 7890,
      "Ġgaming": 7891,
      "ĠIII": 7892,
      "ĠRub": 7893,
      "Ġnarrow": 7894,
      "ĠMah": 7895,
      "Ġchose": 7896,
      "Ġprospect": 7897,
      "Ġfing": 7898,
      "ĠTotal": 7899,
      "-be": 7900,
      "Ġje": 7901,
      "uis": 7902,
      "!)": 7903,
      "Ġfitness": 7904,
      "====": 7905,
      "Ġmanaging": 7906,
      "Ġtransportation": 7907,
      "haust": 7908,
      "Ġunw": 7909,
      "Ġdivision": 7910,
      "uminum": 7911,
      "Ġconfident": 7912,
      "Ġachieved": 7913,
      "Ġcrushing": 7914,
      "Ġprinted": 7915,
      "ĠBR": 7916,
      "ĠChange": 7917,
      "Ġheav": 7918,
      "Ġkit": 7919,
      "/p": 7920,
      "Press": 7921,
      "ĠSEO": 7922,
      "ran": 7923,
      "Ġgenuine": 7924,
      "iary": 7925,
      "Ġfounded": 7926,
      "Ġsplit": 7927,
      "Ġlegislation": 7928,
      "ĠBase": 7929,
      "Ġevol": 7930,
      "Ġultimately": 7931,
      "Ġguidelines": 7932,
      "¿½": 7933,
      "Ġmuseum": 7934,
      "Ġproven": 7935,
      "Ġvibr": 7936,
      "Ġtrained": 7937,
      "ĠMountain": 7938,
      "iot": 7939,
      "ĠResources": 7940,
      "Ġmurder": 7941,
      "ĠGive": 7942,
      "ĠMap": 7943,
      "ĠEstate": 7944,
      "ĠLLC": 7945,
      "ĠStudy": 7946,
      "Ġstruggle": 7947,
      "ĠTips": 7948,
      "coin": 7949,
      "bro": 7950,
      "Ã¶": 7951,
      "Ġempty": 7952,
      "ĠFast": 7953,
      "Ġprogramming": 7954,
      "Ġgate": 7955,
      "Ġlandscape": 7956,
      "Ġinjuries": 7957,
      "inals": 7958,
      "ĠTer": 7959,
      "Ġexpenses": 7960,
      "Ġpresents": 7961,
      "ĠReturn": 7962,
      "Ġshots": 7963,
      "Ġyield": 7964,
      "ĠMother": 7965,
      "ĠHair": 7966,
      "rovers": 7967,
      "tage": 7968,
      "ĠLess": 7969,
      "Ġrepeated": 7970,
      "Ġhel": 7971,
      "Ġsuffering": 7972,
      "Ġlists": 7973,
      "KE": 7974,
      "Ġpills": 7975,
      "Ġclaimed": 7976,
      "Ġfinance": 7977,
      "Ġchannels": 7978,
      "ailed": 7979,
      "ĠInstall": 7980,
      "Ġdeck": 7981,
      "oned": 7982,
      "ĠMs": 7983,
      "Be": 7984,
      "Ġdisplayed": 7985,
      "Ġstrategic": 7986,
      "Ġacting": 7987,
      "Ġlies": 7988,
      "Ġhasn": 7989,
      "Ġpercentage": 7990,
      "Ġillness": 7991,
      "Ġhydro": 7992,
      "ystem": 7993,
      "iac": 7994,
      "Ġtransmission": 7995,
      "Ġrecover": 7996,
      "Ġterrit": 7997,
      "ulating": 7998,
      "Pl": 7999,
      "ĠRoll": 8000,
      "Ġsupplement": 8001,
      "Ġcontaining": 8002,
      "How": 8003,
      "Ġtill": 8004,
      "Ġeligible": 8005,
      "Ġvisited": 8006,
      "Ġfaces": 8007,
      "Ġinterpret": 8008,
      "ĠWorking": 8009,
      "ĠAnaly": 8010,
      "Ġincorpor": 8011,
      "Ġplot": 8012,
      "Ġvent": 8013,
      "Ġdrinking": 8014,
      ".E": 8015,
      "ĠEmer": 8016,
      "ĠNorthern": 8017,
      "ĠFA": 8018,
      "ĠWedding": 8019,
      "Ġregions": 8020,
      ".ht": 8021,
      "Ġplatforms": 8022,
      "-line": 8023,
      "ĠSupreme": 8024,
      "boy": 8025,
      "ĠCS": 8026,
      "Ġdepends": 8027,
      "Ġextension": 8028,
      "quis": 8029,
      "ANT": 8030,
      "ï¿½": 8031,
      "ologist": 8032,
      "Ġformal": 8033,
      "ĠCome": 8034,
      "Ġcompare": 8035,
      "Ġwra": 8036,
      "Ġcausing": 8037,
      "front": 8038,
      "books": 8039,
      "ĠCivil": 8040,
      "Ġfault": 8041,
      "apore": 8042,
      "ĠTal": 8043,
      "Ġbelieves": 8044,
      "ĠFilm": 8045,
      "/m": 8046,
      "ĠAdam": 8047,
      "acher": 8048,
      "Ġneither": 8049,
      "Ġblocks": 8050,
      "Book": 8051,
      "ials": 8052,
      "Ġpermanent": 8053,
      "arters": 8054,
      "ĠPerformance": 8055,
      "ALL": 8056,
      "bury": 8057,
      "Ġavailability": 8058,
      "Ġbridge": 8059,
      "oding": 8060,
      "jo": 8061,
      "Ġimproving": 8062,
      "Ġillegal": 8063,
      "ĠForce": 8064,
      "secut": 8065,
      "ĠGrow": 8066,
      "ĠBit": 8067,
      "whel": 8068,
      "Ġ}": 8069,
      "Ġpounds": 8070,
      "Ġrice": 8071,
      "Ġaccordance": 8072,
      "Ġsaving": 8073,
      "ĠTaylor": 8074,
      "ĠMonth": 8075,
      "ĠAh": 8076,
      "ugs": 8077,
      "Ġentreprene": 8078,
      "Ġscheme": 8079,
      "zona": 8080,
      "ĠMom": 8081,
      "itis": 8082,
      "ĠBrad": 8083,
      "Ġwatched": 8084,
      "nda": 8085,
      "umer": 8086,
      "born": 8087,
      "Ġdevelopers": 8088,
      "Ġmodule": 8089,
      "Ġattractive": 8090,
      "But": 8091,
      "ĠKent": 8092,
      "ĠImport": 8093,
      "Ġarray": 8094,
      "Ġapplicable": 8095,
      "Ġexplains": 8096,
      "äº": 8097,
      "Ġ%": 8098,
      "Ġobserved": 8099,
      "Ġdreams": 8100,
      "ĠNE": 8101,
      "ĠDead": 8102,
      "Ġsurprising": 8103,
      "Ġintroduction": 8104,
      "Ġanymore": 8105,
      "uous": 8106,
      "Ġafraid": 8107,
      "ĠEditor": 8108,
      "ĠSelf": 8109,
      "Ġchoosing": 8110,
      "Ġstuck": 8111,
      "Ġlady": 8112,
      "ogether": 8113,
      "orne": 8114,
      "Ġpocket": 8115,
      "ICE": 8116,
      "parent": 8117,
      "PL": 8118,
      "Ġexplan": 8119,
      "Ġengaged": 8120,
      "Ġdriven": 8121,
      "Ġbow": 8122,
      "Ġfrequency": 8123,
      "holders": 8124,
      "ĠIM": 8125,
      "ĠChall": 8126,
      "Ġgall": 8127,
      "ĠBreak": 8128,
      "ds": 8129,
      "CS": 8130,
      "ilst": 8131,
      "Ġcontribute": 8132,
      "Ġseed": 8133,
      "adel": 8134,
      "ĠOp": 8135,
      "ureau": 8136,
      "Ġrecy": 8137,
      "Ġreact": 8138,
      "Ġapparently": 8139,
      "Ġconsumption": 8140,
      "Ġreputation": 8141,
      "ĠStan": 8142,
      "Ġque": 8143,
      "Ġsavings": 8144,
      "Ġphotograp": 8145,
      "ealand": 8146,
      "amental": 8147,
      "Ġcommonly": 8148,
      "IVE": 8149,
      "Ġzero": 8150,
      "ormal": 8151,
      "ĠFred": 8152,
      "ĠDun": 8153,
      "Ġcollaboration": 8154,
      "ĠBand": 8155,
      "sem": 8156,
      "ĠCloud": 8157,
      "Ġposting": 8158,
      "IB": 8159,
      "ghan": 8160,
      "UST": 8161,
      "ali": 8162,
      "odge": 8163,
      "Ġarchitecture": 8164,
      "Ġalive": 8165,
      "Ġwhenever": 8166,
      "Ġrequests": 8167,
      "Ġhabit": 8168,
      "ĠTalk": 8169,
      "Ġreject": 8170,
      "Ġliterature": 8171,
      "ĠSpain": 8172,
      "Ġcrucial": 8173,
      "ĠBased": 8174,
      "Ġtube": 8175,
      "izza": 8176,
      "Ġgender": 8177,
      "cludes": 8178,
      "ipt": 8179,
      "Ġyards": 8180,
      "ĠComputer": 8181,
      "Ġexistence": 8182,
      "Ġrevolution": 8183,
      "Ġdrag": 8184,
      "Ġoccurred": 8185,
      "ĠKh": 8186,
      "Ġconsideration": 8187,
      "ĠPrime": 8188,
      "Ġincreasingly": 8189,
      "ĠEveryone": 8190,
      "Ġsuddenly": 8191,
      "Ġblank": 8192,
      "ĠLimited": 8193,
      "jection": 8194,
      "ĠBrian": 8195,
      "phones": 8196,
      "Ġhandling": 8197,
      "-ex": 8198,
      "rowse": 8199,
      "Ġshouldn": 8200,
      "erning": 8201,
      "-end": 8202,
      "bridge": 8203,
      ".L": 8204,
      "abeth": 8205,
      "Al": 8206,
      "-level": 8207,
      "umm": 8208,
      "rus": 8209,
      "phy": 8210,
      "Ġfunctional": 8211,
      "Ġusage": 8212,
      "anes": 8213,
      "ĠSolutions": 8214,
      "Ġera": 8215,
      "ĠCarl": 8216,
      "lder": 8217,
      "rection": 8218,
      "Ġrecon": 8219,
      "ĠPric": 8220,
      "Ġbroadcast": 8221,
      "Ġrecommendations": 8222,
      "ĠRos": 8223,
      "Ġstructures": 8224,
      "olit": 8225,
      "Ġinvolves": 8226,
      "ĠPublished": 8227,
      "ership": 8228,
      "ĠðŁ": 8229,
      "Ġphones": 8230,
      "Ġflavor": 8231,
      "Ġmerch": 8232,
      "Ġagric": 8233,
      "Ġmatches": 8234,
      "ĠSM": 8235,
      "Ġmembership": 8236,
      "ĠSound": 8237,
      "Ġvert": 8238,
      "ĠStudio": 8239,
      "Ġhotels": 8240,
      "issions": 8241,
      ".R": 8242,
      "Ġblind": 8243,
      "Ġshoulder": 8244,
      "ĠSem": 8245,
      "Ġelectro": 8246,
      "Ġshell": 8247,
      "TP": 8248,
      "ped": 8249,
      "ĠSW": 8250,
      "Ġmile": 8251,
      "ampion": 8252,
      "Ġmg": 8253,
      "Ġcarrying": 8254,
      "Ġhistoric": 8255,
      "Ġratio": 8256,
      "aron": 8257,
      "ocation": 8258,
      "orce": 8259,
      "iking": 8260,
      "Ġbunch": 8261,
      "aret": 8262,
      "terest": 8263,
      "An": 8264,
      "ĠHenry": 8265,
      "etary": 8266,
      "Ġeverywhere": 8267,
      "Ġattended": 8268,
      "aa": 8269,
      "ogy": 8270,
      "Ġpitch": 8271,
      "Ġlimits": 8272,
      "icted": 8273,
      "Ġroles": 8274,
      "Ġproducing": 8275,
      "adium": 8276,
      "ĠAirport": 8277,
      "Ġsorry": 8278,
      "Ġsustainable": 8279,
      "pense": 8280,
      "cers": 8281,
      "Ġcharacteristics": 8282,
      "Ġtradition": 8283,
      "Ġcontained": 8284,
      "Ġsoph": 8285,
      "ĠElectric": 8286,
      "Ġshops": 8287,
      "Ġfactory": 8288,
      "state": 8289,
      "ĠKind": 8290,
      "TV": 8291,
      "ifer": 8292,
      "ĠHollywood": 8293,
      "Ġbroke": 8294,
      "Ġintention": 8295,
      "Ġengagement": 8296,
      "ĠPrivate": 8297,
      "Ġconsists": 8298,
      "aka": 8299,
      "Ġsuperior": 8300,
      "ounter": 8301,
      "inson": 8302,
      "itches": 8303,
      "ĠVen": 8304,
      "Ġvirus": 8305,
      "Ġnaturally": 8306,
      "ĠQuestions": 8307,
      "Ġassume": 8308,
      "Ġresidential": 8309,
      "ĠImpro": 8310,
      "áĢ": 8311,
      "ĠCapital": 8312,
      "Ġvulner": 8313,
      "Ġequipped": 8314,
      "ĠRoman": 8315,
      "ĠVar": 8316,
      "Ġpreparation": 8317,
      "Ġhospit": 8318,
      "ĠBenef": 8319,
      "Ġpermission": 8320,
      "ĠALL": 8321,
      "Ġprogramme": 8322,
      "Ġrequirement": 8323,
      "onder": 8324,
      "ĠBritain": 8325,
      "Ġmic": 8326,
      "Ġax": 8327,
      "Ġquotes": 8328,
      "Ġhyper": 8329,
      "ĠJobs": 8330,
      "brid": 8331,
      "ĠMiami": 8332,
      "inois": 8333,
      "ĠDif": 8334,
      "Ġgorgeous": 8335,
      "ĠOfficer": 8336,
      "ĠZealand": 8337,
      "ĠTrade": 8338,
      "ĠIndustry": 8339,
      "Ġcontinuing": 8340,
      "acon": 8341,
      "hemat": 8342,
      "ĠProperty": 8343,
      "Ġsamples": 8344,
      "Ġbench": 8345,
      "inent": 8346,
      "ĠSong": 8347,
      "ĠLas": 8348,
      "Ġtired": 8349,
      "Ġmeals": 8350,
      "icket": 8351,
      "Ġtone": 8352,
      "tw": 8353,
      "',": 8354,
      "Ġattach": 8355,
      "Ġbars": 8356,
      "ĠDeb": 8357,
      "Ġinvited": 8358,
      "Ġaggress": 8359,
      "aine": 8360,
      "Ġindustries": 8361,
      "To": 8362,
      "ĠGuard": 8363,
      "ĠGreek": 8364,
      "Ġsensitive": 8365,
      "-v": 8366,
      "ĠBag": 8367,
      "Ġfinger": 8368,
      "acious": 8369,
      "Ġrig": 8370,
      "Ġdoctors": 8371,
      "Ġstood": 8372,
      ".I": 8373,
      "ĠKevin": 8374,
      "Ġremoval": 8375,
      "nce": 8376,
      "terior": 8377,
      "Ġnewly": 8378,
      "ko": 8379,
      "hot": 8380,
      "eras": 8381,
      "Ar": 8382,
      "case": 8383,
      "una": 8384,
      "ĠBa": 8385,
      "Ġmortgage": 8386,
      "ĠFreeware": 8387,
      "Ġmarked": 8388,
      "Ġbuff": 8389,
      "Ġexpansion": 8390,
      "Ġenterprise": 8391,
      "ĠNiger": 8392,
      "ĠEverything": 8393,
      "ĠHarry": 8394,
      "Ġfirms": 8395,
      "letter": 8396,
      "then": 8397,
      "Ġfalling": 8398,
      "ĠCe": 8399,
      "Ġreducing": 8400,
      "ambling": 8401,
      "Ġoffices": 8402,
      "ĠAvenue": 8403,
      "ĠSche": 8404,
      "sen": 8405,
      "Ġembr": 8406,
      "ifier": 8407,
      "Ġpriority": 8408,
      "Ġmemories": 8409,
      "Ġunderstood": 8410,
      "covery": 8411,
      "Ġending": 8412,
      "gent": 8413,
      "Ġliterally": 8414,
      "FF": 8415,
      "Ġdecent": 8416,
      "Ġgarage": 8417,
      "upid": 8418,
      "ĠNFL": 8419,
      "irus": 8420,
      "ĠUpdate": 8421,
      "je": 8422,
      "View": 8423,
      "Ġcodes": 8424,
      "Ġheaven": 8425,
      "Ġgraphics": 8426,
      "ĠHP": 8427,
      "Ġprinting": 8428,
      "ĠIron": 8429,
      "Ġplane": 8430,
      "Ġboxes": 8431,
      "sole": 8432,
      "Ġbreaking": 8433,
      "Ġcouncil": 8434,
      "ĠPast": 8435,
      "ĠAgency": 8436,
      "Ġrespectively": 8437,
      "Ġscored": 8438,
      "aters": 8439,
      "asm": 8440,
      "Ġlargely": 8441,
      "ĠEmploy": 8442,
      "lections": 8443,
      "ĠArizona": 8444,
      "alo": 8445,
      "oken": 8446,
      "ACK": 8447,
      "Ġpand": 8448,
      "ĠAdditional": 8449,
      "Ġmarks": 8450,
      "Ġregardless": 8451,
      "-k": 8452,
      "Ġunknown": 8453,
      "Ġproposal": 8454,
      "-friendly": 8455,
      "Ġincredibly": 8456,
      "Ġdad": 8457,
      "sis": 8458,
      "Ġtape": 8459,
      "Ġweren": 8460,
      "CL": 8461,
      "Ġframework": 8462,
      "Ġrecognition": 8463,
      "Ġconfiguration": 8464,
      "ĠArm": 8465,
      "ardens": 8466,
      "imize": 8467,
      "Ġcapabilities": 8468,
      "ĠMarc": 8469,
      "Ġloving": 8470,
      "Ġconnections": 8471,
      "Ġscrew": 8472,
      "ruption": 8473,
      "MENT": 8474,
      "Ġunus": 8475,
      "Ġinteract": 8476,
      "ĠâĢĻ": 8477,
      ".K": 8478,
      "Ġcareful": 8479,
      "Ġenables": 8480,
      "Ġinfection": 8481,
      "ĠLew": 8482,
      "Ġphotography": 8483,
      "ĠPrim": 8484,
      "ĠAgree": 8485,
      "Ġcriteria": 8486,
      "ĠMB": 8487,
      "uma": 8488,
      "rix": 8489,
      "wered": 8490,
      "!âĢĿ": 8491,
      "including": 8492,
      "IST": 8493,
      "inery": 8494,
      "Ġpepper": 8495,
      "Ġcotton": 8496,
      "Ġcovering": 8497,
      "ĠAV": 8498,
      "uten": 8499,
      "ĠAnalysis": 8500,
      "Ġcertified": 8501,
      "ĠAppro": 8502,
      "Ġdrawn": 8503,
      "Ġchest": 8504,
      "Ġgentle": 8505,
      "aws": 8506,
      "ĠAddress": 8507,
      "ĠGas": 8508,
      "ĠLatin": 8509,
      "ronics": 8510,
      "That": 8511,
      "Ġportfolio": 8512,
      "ĠTerms": 8513,
      "ĠSquare": 8514,
      "bell": 8515,
      "Ġscenes": 8516,
      "ĠOverall": 8517,
      "Ġgiant": 8518,
      "Ġoverwhel": 8519,
      "ĠTen": 8520,
      "Ġfaculty": 8521,
      "lers": 8522,
      "Ġslee": 8523,
      "Ġlawyer": 8524,
      "Ġtitles": 8525,
      "ITH": 8526,
      "ĠRound": 8527,
      "ĠVegas": 8528,
      "Ġthinks": 8529,
      "Ġjuice": 8530,
      "ĠGallery": 8531,
      "ĠSamsung": 8532,
      "onic": 8533,
      "ĠHost": 8534,
      "Ġcomputers": 8535,
      "ĠGlass": 8536,
      "axy": 8537,
      "ĠGolden": 8538,
      "Ġstable": 8539,
      "Ġarrive": 8540,
      "Ġalt": 8541,
      "avor": 8542,
      "Ġexposed": 8543,
      "Ġtracking": 8544,
      "Ġknock": 8545,
      "etch": 8546,
      "ĠViet": 8547,
      "Ġpowers": 8548,
      "ĠPoly": 8549,
      "æľ": 8550,
      "Ġpotentially": 8551,
      "Ġaccomplish": 8552,
      "Ġremained": 8553,
      "aska": 8554,
      "Ġvess": 8555,
      "wear": 8556,
      "ĠFashion": 8557,
      "!!!!": 8558,
      "Ġsections": 8559,
      "Ġseats": 8560,
      "wan": 8561,
      "ĠEliz": 8562,
      "Ġstrict": 8563,
      "ige": 8564,
      "Ġsteam": 8565,
      "gorith": 8566,
      "lessly": 8567,
      "ĠJr": 8568,
      "Ġbrilliant": 8569,
      "Ġcalendar": 8570,
      "Ġtherm": 8571,
      "ĠâĨĴ": 8572,
      "Ġsuffe": 8573,
      "Ġpic": 8574,
      "worth": 8575,
      "ĠChem": 8576,
      "Ġfraud": 8577,
      "Ġspark": 8578,
      "ĠCasino": 8579,
      "Ġmood": 8580,
      "ĠBlu": 8581,
      "Ġarmy": 8582,
      "Ġyard": 8583,
      "Ġsubjects": 8584,
      "olis": 8585,
      "Ġlanguages": 8586,
      "ĠSir": 8587,
      "-quality": 8588,
      "ailing": 8589,
      "Ġcuts": 8590,
      "riers": 8591,
      "pire": 8592,
      "ceived": 8593,
      "erate": 8594,
      "ĠAdditionally": 8595,
      "Ġtemplate": 8596,
      "fee": 8597,
      "Ġstrike": 8598,
      "ĠHello": 8599,
      "ĠAmong": 8600,
      "Ġboss": 8601,
      "ĠStay": 8602,
      "ilet": 8603,
      "Ġinvolving": 8604,
      "ints": 8605,
      "isted": 8606,
      "Ġequivalent": 8607,
      "ĠProtection": 8608,
      "charge": 8609,
      "âĢĻ,": 8610,
      "ji": 8611,
      "Ġgranted": 8612,
      "Ġchampions": 8613,
      "Ġjur": 8614,
      "Ġsecondary": 8615,
      "Ġdebut": 8616,
      "Ġchances": 8617,
      "ocument": 8618,
      "IES": 8619,
      "asting": 8620,
      "Ġlens": 8621,
      "ĠGro": 8622,
      "ĠMust": 8623,
      "Ġdispl": 8624,
      "OUN": 8625,
      "ĠMini": 8626,
      "/M": 8627,
      "ĠImp": 8628,
      "Ġlip": 8629,
      "ĠAssistant": 8630,
      "OB": 8631,
      "icide": 8632,
      "Ġtransaction": 8633,
      "Ġopinions": 8634,
      "LS": 8635,
      "Ġawards": 8636,
      "ĠComplete": 8637,
      "Ġunex": 8638,
      "Ġplain": 8639,
      "Ġdiseases": 8640,
      "Ġpersonality": 8641,
      "ĠAnth": 8642,
      "ador": 8643,
      "ĠFab": 8644,
      "ĠLatest": 8645,
      "Ġvictims": 8646,
      "ĠHouston": 8647,
      "ĠCool": 8648,
      "Ġoppon": 8649,
      "ĠBud": 8650,
      "Ġmold": 8651,
      "Ġborrow": 8652,
      "ilton": 8653,
      "Ġcompliance": 8654,
      "bration": 8655,
      "Ġautomatic": 8656,
      "uh": 8657,
      "BN": 8658,
      "Ġmath": 8659,
      "Ġthousand": 8660,
      "Ġlesson": 8661,
      "ĠDrag": 8662,
      "Ġtissue": 8663,
      "Ġescape": 8664,
      "Ġ($": 8665,
      "Ġstake": 8666,
      "ĠOak": 8667,
      "ĠPerfect": 8668,
      "Ġtomat": 8669,
      "Ġcommunicate": 8670,
      "Ġdollar": 8671,
      "Ġorient": 8672,
      "Ġindicate": 8673,
      "Ġoccurs": 8674,
      "ĠMovie": 8675,
      "ĠStation": 8676,
      "Ġbehalf": 8677,
      "Ġfindings": 8678,
      "ĠEastern": 8679,
      "ĠFollowing": 8680,
      "allas": 8681,
      "They": 8682,
      "ferent": 8683,
      "Ġloud": 8684,
      "Ġbuck": 8685,
      "Ġtravell": 8686,
      "ashing": 8687,
      "Ġspray": 8688,
      "Ġtreatments": 8689,
      "Ġportable": 8690,
      "INE": 8691,
      "Ġnights": 8692,
      "ĠClear": 8693,
      "Ġspecified": 8694,
      "ulum": 8695,
      "ortion": 8696,
      "Ġexhaust": 8697,
      "ĠToronto": 8698,
      "Ġfestival": 8699,
      "ĠIrish": 8700,
      "vania": 8701,
      "Ġundert": 8702,
      "yes": 8703,
      "Ġreserved": 8704,
      "clude": 8705,
      "ĠResults": 8706,
      "Ġvisible": 8707,
      "Ġlatter": 8708,
      "ĠNic": 8709,
      "Ġconversion": 8710,
      "Ġtact": 8711,
      "ĠSingapore": 8712,
      "roke": 8713,
      "ĠRestaur": 8714,
      "ĠNav": 8715,
      "Ġunion": 8716,
      "Ġformula": 8717,
      "Ġinstruction": 8718,
      "ĠSarah": 8719,
      "ashes": 8720,
      "Ġlaid": 8721,
      "Ġbirds": 8722,
      "agraph": 8723,
      "ĠFive": 8724,
      "rich": 8725,
      "Ġneighb": 8726,
      "Ġcasual": 8727,
      "FA": 8728,
      "Ġsharp": 8729,
      "Ġwins": 8730,
      "anted": 8731,
      "ĠKorea": 8732,
      "Ġcopyright": 8733,
      "Ġassociation": 8734,
      "ĠLarge": 8735,
      "ĠSug": 8736,
      "ĠBes": 8737,
      "Ġpublication": 8738,
      "enth": 8739,
      "Ġanxiety": 8740,
      "HA": 8741,
      "Ġtrim": 8742,
      "bits": 8743,
      "aver": 8744,
      "Ġrefund": 8745,
      "remony": 8746,
      "Ġsees": 8747,
      "rer": 8748,
      "ĠExplore": 8749,
      "Ġeverybody": 8750,
      "Ġpor": 8751,
      "Ġstead": 8752,
      "from": 8753,
      "ĠStephen": 8754,
      "Ġsuggestions": 8755,
      "ĠPick": 8756,
      "bow": 8757,
      "Ġlift": 8758,
      "ĠNut": 8759,
      "ĠCore": 8760,
      "Ġconcerning": 8761,
      "Ð»": 8762,
      "Ġrising": 8763,
      "ĠTransport": 8764,
      "ÙĦ": 8765,
      "ĠAltern": 8766,
      "Ġenjoying": 8767,
      "igate": 8768,
      "Ġintellect": 8769,
      "Ġlisting": 8770,
      "tics": 8771,
      "Ġlaptop": 8772,
      "Ġloose": 8773,
      "Ġawarded": 8774,
      "uits": 8775,
      "Ġstronger": 8776,
      "Ġcm": 8777,
      "âĢĺ": 8778,
      "ĠOpp": 8779,
      "ĠTam": 8780,
      "ĠWinter": 8781,
      "Ġstaying": 8782,
      "Ġmerely": 8783,
      "Ġaircraft": 8784,
      "ĠChoose": 8785,
      "ilty": 8786,
      "oz": 8787,
      "When": 8788,
      "ĠBol": 8789,
      "ĠUP": 8790,
      "Ġflag": 8791,
      "aire": 8792,
      "limited": 8793,
      "ĠOx": 8794,
      "inator": 8795,
      "Ġentitled": 8796,
      "ĠBrother": 8797,
      "iah": 8798,
      "Ġpace": 8799,
      "Ġbaking": 8800,
      "ĠSwed": 8801,
      "Ġalarm": 8802,
      "Ġintent": 8803,
      "ĠIllinois": 8804,
      "ĠHom": 8805,
      "Ġevaluation": 8806,
      "Ġcig": 8807,
      "],": 8808,
      "car": 8809,
      "Ġ..": 8810,
      "Ġhopes": 8811,
      "ĠCourse": 8812,
      "Ġinsight": 8813,
      "ĠPhilipp": 8814,
      "Ġscientists": 8815,
      "ĠRs": 8816,
      "ĠDNA": 8817,
      "ĠRog": 8818,
      "*Ċ": 8819,
      "ĠBeautiful": 8820,
      "ĠLady": 8821,
      "Ġarrested": 8822,
      "Ġassembly": 8823,
      "ĠDouble": 8824,
      "ĠBell": 8825,
      "edit": 8826,
      "ĠEquipment": 8827,
      "fall": 8828,
      "Ġconcepts": 8829,
      "burgh": 8830,
      "!\"": 8831,
      "ĠVersion": 8832,
      "ĠAudio": 8833,
      "Ġerrors": 8834,
      "ĠJay": 8835,
      "-op": 8836,
      "py": 8837,
      "Ġexport": 8838,
      "ĠDave": 8839,
      "Ġgrinding": 8840,
      "Ġwrites": 8841,
      "Ġintense": 8842,
      "Ġhoriz": 8843,
      "Ġneut": 8844,
      "Ġchecking": 8845,
      "asty": 8846,
      "mers": 8847,
      "ĠBru": 8848,
      "Ġreply": 8849,
      "Ġstir": 8850,
      "Ġoutcome": 8851,
      "aza": 8852,
      "ĠFinance": 8853,
      "ĠArchitect": 8854,
      "Ġprovision": 8855,
      "Ġhung": 8856,
      "ĠTony": 8857,
      "Ġfundamental": 8858,
      "Ġupgrade": 8859,
      "Ġemployer": 8860,
      "Ġprotocol": 8861,
      "Ġresort": 8862,
      "Ġsentence": 8863,
      "Ġharder": 8864,
      "ECT": 8865,
      "ĠCou": 8866,
      "ĠLes": 8867,
      "Ġconscious": 8868,
      "Ġprofessor": 8869,
      "igen": 8870,
      "ĠSingle": 8871,
      "tery": 8872,
      "ĠFinal": 8873,
      "Ġgotten": 8874,
      "awa": 8875,
      "ĠLinux": 8876,
      "ĠYears": 8877,
      "ĠJordan": 8878,
      "Ġputs": 8879,
      "aft": 8880,
      "Ġblend": 8881,
      "Ġadvent": 8882,
      "ussy": 8883,
      "Ġclosing": 8884,
      "ĠSummary": 8885,
      "ĠAdvert": 8886,
      "Ġfluid": 8887,
      "ĠBern": 8888,
      "Ġobjective": 8889,
      "aud": 8890,
      "ĠMaking": 8891,
      "riger": 8892,
      "Ġscope": 8893,
      "/D": 8894,
      "ĠUsed": 8895,
      "ĠBrook": 8896,
      ".'": 8897,
      "usal": 8898,
      "Ġevolution": 8899,
      "TE": 8900,
      "Ġmanagers": 8901,
      "Tr": 8902,
      "ĠBat": 8903,
      "iagra": 8904,
      "Ġoh": 8905,
      "ĠMajor": 8906,
      "Ġindicated": 8907,
      "ĠCart": 8908,
      "fa": 8909,
      "ĠConc": 8910,
      "?\"Ċ": 8911,
      "ĠHE": 8912,
      "isdom": 8913,
      "Ġsequence": 8914,
      "ĠAnnual": 8915,
      "otted": 8916,
      "uties": 8917,
      "All": 8918,
      "ylvania": 8919,
      "Ġboot": 8920,
      "Ġflying": 8921,
      "Ġheaded": 8922,
      "proof": 8923,
      "ĠUnivers": 8924,
      "cribed": 8925,
      "bd": 8926,
      "ĠBirth": 8927,
      "ela": 8928,
      "ĠME": 8929,
      "ĠLanguage": 8930,
      "Ġcrack": 8931,
      "Ġscreens": 8932,
      "Ġkilling": 8933,
      "ĠAdvanced": 8934,
      "Ġjoining": 8935,
      "Ġsegment": 8936,
      "ĠJason": 8937,
      "Ġheating": 8938,
      "Ġrepresented": 8939,
      "ĠClinton": 8940,
      "ĠSO": 8941,
      "ĠAG": 8942,
      "Ġsuppliers": 8943,
      "Ġobst": 8944,
      "Ġadopted": 8945,
      "ĠSD": 8946,
      "ĠPrinc": 8947,
      "sts": 8948,
      "urities": 8949,
      "-J": 8950,
      "Ġsmoke": 8951,
      "ĠGreg": 8952,
      "Ġentering": 8953,
      "Ġbasketball": 8954,
      "oked": 8955,
      "Ġsensor": 8956,
      "Ġwarning": 8957,
      "Ġorange": 8958,
      "ĠComb": 8959,
      "Ġenforcement": 8960,
      ".B": 8961,
      "ieties": 8962,
      "Ġsignals": 8963,
      "ĠEver": 8964,
      "ĠAst": 8965,
      "ĠBarb": 8966,
      "ĠInfo": 8967,
      "yard": 8968,
      "fers": 8969,
      "elle": 8970,
      "Ġcomplicated": 8971,
      "CO": 8972,
      "Ġtutorial": 8973,
      "Ã¢": 8974,
      "Ġpurchasing": 8975,
      "ĠSide": 8976,
      "ervations": 8977,
      "ĠUSD": 8978,
      "oen": 8979,
      "Ġaccuracy": 8980,
      "ĠMagazine": 8981,
      "ĠDavis": 8982,
      "Ġmolec": 8983,
      "Ġmeets": 8984,
      ".N": 8985,
      "rated": 8986,
      "Ġgram": 8987,
      "raine": 8988,
      "Ġfalls": 8989,
      "Ġwondering": 8990,
      "Ġuncom": 8991,
      "ira": 8992,
      "ĠMiller": 8993,
      "Ġocean": 8994,
      "Ġassigned": 8995,
      "Ġcontrovers": 8996,
      "ifting": 8997,
      "Ġalongside": 8998,
      "ĠSimply": 8999,
      "Ġstayed": 9000,
      "Ġlect": 9001,
      "Ġbone": 9002,
      "Ġapplying": 9003,
      "Ġjudgment": 9004,
      "Ġdiabetes": 9005,
      "Ġsexy": 9006,
      "inning": 9007,
      "pson": 9008,
      "ĠClassic": 9009,
      "~~": 9010,
      "aintiff": 9011,
      "Ġhealing": 9012,
      "Ġspots": 9013,
      "ĠMu": 9014,
      "Ġbomb": 9015,
      "Ġpdf": 9016,
      "Ġmask": 9017,
      "Ġedit": 9018,
      "Ġelected": 9019,
      "Ġprohib": 9020,
      "Ġbelt": 9021,
      "Ġmaintaining": 9022,
      "Ġforecast": 9023,
      "Ġmistake": 9024,
      "pection": 9025,
      "Ġgreatly": 9026,
      "ĠØ": 9027,
      "Ġcompensation": 9028,
      "ĠBan": 9029,
      "ĠHistor": 9030,
      "ä»": 9031,
      "Ġacquis": 9032,
      "Ġconsequences": 9033,
      "ĠIndustrial": 9034,
      "arty": 9035,
      "war": 9036,
      "Ġenroll": 9037,
      "oween": 9038,
      "Ġintegration": 9039,
      "Ġminimal": 9040,
      "Ġsetup": 9041,
      "Ġfits": 9042,
      "Ġaddresses": 9043,
      "%Ċ": 9044,
      "Ġresume": 9045,
      "Ġdesktop": 9046,
      "ĠBab": 9047,
      "Ġswimming": 9048,
      "Ġseeds": 9049,
      ".c": 9050,
      "Ġnewspaper": 9051,
      "Ġgym": 9052,
      "ĠSeattle": 9053,
      "Ġjaw": 9054,
      "ĠRelease": 9055,
      "ĠLabels": 9056,
      "ĠYeah": 9057,
      "ĠWire": 9058,
      "ensus": 9059,
      "ĠElizabeth": 9060,
      "bered": 9061,
      "Ġwanting": 9062,
      "Ġsingles": 9063,
      "Ġopens": 9064,
      "ĠCele": 9065,
      "rive": 9066,
      "Ġrend": 9067,
      "ĠBL": 9068,
      "ĠSteven": 9069,
      "Ġru": 9070,
      "Ġcups": 9071,
      "ĠTrad": 9072,
      "%,": 9073,
      "Ġwithdraw": 9074,
      "Ġphenomen": 9075,
      "pending": 9076,
      "Ġcolon": 9077,
      "Ġriding": 9078,
      "Ġtelephone": 9079,
      "Ġcenters": 9080,
      "-sc": 9081,
      "Ġaccounting": 9082,
      "ĠPartners": 9083,
      "Ġadequ": 9084,
      "Ġattitude": 9085,
      "Ġgallery": 9086,
      "ĠFix": 9087,
      "iley": 9088,
      "Ġwake": 9089,
      "âĢ³": 9090,
      "âĢ¦âĢ¦": 9091,
      "via": 9092,
      "ĠExchange": 9093,
      "ruits": 9094,
      "Ġlegend": 9095,
      "ĠBB": 9096,
      "rot": 9097,
      "Ġgam": 9098,
      "Ġenemy": 9099,
      "********": 9100,
      "ORT": 9101,
      "Ġadmit": 9102,
      "pon": 9103,
      "ĠMatthew": 9104,
      "ĠGirls": 9105,
      "Ġpackages": 9106,
      "Ġwherein": 9107,
      "zed": 9108,
      "Ġdies": 9109,
      "isd": 9110,
      "Ġoblig": 9111,
      "aya": 9112,
      "Ġstrongly": 9113,
      "Ġcoat": 9114,
      "FT": 9115,
      "Ġexists": 9116,
      "rac": 9117,
      "Ġcontainer": 9118,
      "ĠShareware": 9119,
      "ĠBudd": 9120,
      "Ġhide": 9121,
[...]
